{"version": "1.0", "truncation": null, "padding": null, "added_tokens": [{"id": 0, "content": "<pad>", "single_word": false, "lstrip": false, "rstrip": false, "normalized": false, "special": true}, {"id": 1, "content": "<bos>", "single_word": false, "lstrip": false, "rstrip": false, "normalized": false, "special": true}, {"id": 2, "content": "<eos>", "single_word": false, "lstrip": false, "rstrip": false, "normalized": false, "special": true}, {"id": 3, "content": "<unk>", "single_word": false, "lstrip": false, "rstrip": false, "normalized": false, "special": true}, {"id": 4, "content": "<proxpl_start>", "single_word": false, "lstrip": false, "rstrip": false, "normalized": false, "special": true}, {"id": 5, "content": "<proxpl_end>", "single_word": false, "lstrip": false, "rstrip": false, "normalized": false, "special": true}], "normalizer": null, "pre_tokenizer": {"type": "ByteLevel", "add_prefix_space": false, "trim_offsets": true, "use_regex": true}, "post_processor": null, "decoder": {"type": "ByteLevel", "add_prefix_space": true, "trim_offsets": true, "use_regex": true}, "model": {"type": "BPE", "dropout": null, "unk_token": null, "continuing_subword_prefix": null, "end_of_word_suffix": null, "fuse_unk": false, "byte_fallback": false, "ignore_merges": false, "vocab": {"<pad>": 0, "<bos>": 1, "<eos>": 2, "<unk>": 3, "<proxpl_start>": 4, "<proxpl_end>": 5, "!": 6, "\"": 7, "'": 8, "(": 9, ")": 10, ",": 11, ".": 12, ":": 13, "<": 14, ">": 15, "H": 16, "I": 17, "T": 18, "_": 19, "a": 20, "b": 21, "c": 22, "d": 23, "e": 24, "f": 25, "h": 26, "i": 27, "j": 28, "k": 29, "l": 30, "m": 31, "n": 32, "o": 33, "p": 34, "r": 35, "s": 36, "t": 37, "u": 38, "v": 39, "w": 40, "x": 41, "y": 42, "z": 43, "\u00f0": 44, "\u010a": 45, "\u010d": 46, "\u0120": 47, "\u012c": 48, "\u013a": 49, "\u0141": 50, "\u010d\u010a": 51, "el": 52, "ld": 53, "lo": 54, "or": 55, "pr": 56, "ello": 57, "hello": 58, "wor": 59, "world": 60, "in": 61, "\u0120s": 62, "\u0120\u0120": 63, "\u0120world": 64, "prin": 65, "print": 66, "de": 67, "is": 68, "\u0120t": 69, "\")": 70, "')": 71, "(\"": 72, "('": 73, "ar": 74, "co": 75, "en": 76, "ou": 77, "ox": 78, "pl": 79, "st": 80, "\u0120a": 81, "prox": 82, "\u0120\u0120\u0120": 83, "code": 84, "proxpl": 85, "!\")": 86, "()": 87, "Hello": 88, "It": 89, "Th": 90, "Tr": 91, "bo": 92, "em": 93, "er": 94, "et": 95, "est": 96, "he": 97, "hou": 98, "ik": 99, "iz": 100, "iou": 101, "icode": 102, "jis": 103, "ken": 104, "ls": 105, "lik": 106, "me": 107, "mbo": 108, "nd": 109, "nicode": 110, "of": 111, "ojis": 112, "oken": 113, "ome": 114, "pp": 115, "rn": 116, "ret": 117, "ue": 118, "unicode": 119, "upp": 120, "urn": 121, "var": 122, "ymbo": 123, "\u00f0\u0141": 124, "\u0120<": 125, "\u0120hello": 126, "\u0120print": 127, "\u0120is": 128, "\u0120code": 129, "\u0120It": 130, "\u0120Tr": 131, "\u0120em": 132, "\u0120lik": 133, "\u0120of": 134, "\u0120ret": 135, "\u0120unicode": 136, "\u0120var": 137, "\u0120\u00f0\u0141": 138, "\u013a\u012c": 139, "ort": 140, "\u0120shou": 141, "\u0120some": 142, "\u0120supp": 143, "\u0120symbo": 144, "def": 145, "\u0120test": 146, "\u0120the": 147, "\u0120token": 148, "art": 149, "end": 150, "start": 151, "\u0120and": 152, "():": 153, "This": 154, "izer": 155, "ious": 156, "\u0120True": 157, "\u0120emojis": 158, "\u0120like": 159, "\u0120return": 160, "\u0120various": 161, "\u0120\u00f0\u0141\u013a\u012c": 162, "\u0120should": 163, "\u0120support": 164, "\u0120symbols": 165, "\u0120tokenizer": 166, "dummy_word_167": 167, "dummy_word_168": 168, "dummy_word_169": 169, "dummy_word_170": 170, "dummy_word_171": 171, "dummy_word_172": 172, "dummy_word_173": 173, "dummy_word_174": 174, "dummy_word_175": 175, "dummy_word_176": 176, "dummy_word_177": 177, "dummy_word_178": 178, "dummy_word_179": 179, "dummy_word_180": 180, "dummy_word_181": 181, "dummy_word_182": 182, "dummy_word_183": 183, "dummy_word_184": 184, "dummy_word_185": 185, "dummy_word_186": 186, "dummy_word_187": 187, "dummy_word_188": 188, "dummy_word_189": 189, "dummy_word_190": 190, "dummy_word_191": 191, "dummy_word_192": 192, "dummy_word_193": 193, "dummy_word_194": 194, "dummy_word_195": 195, "dummy_word_196": 196, "dummy_word_197": 197, "dummy_word_198": 198, "dummy_word_199": 199, "dummy_word_200": 200, "dummy_word_201": 201, "dummy_word_202": 202, "dummy_word_203": 203, "dummy_word_204": 204, "dummy_word_205": 205, "dummy_word_206": 206, "dummy_word_207": 207, "dummy_word_208": 208, "dummy_word_209": 209, "dummy_word_210": 210, "dummy_word_211": 211, "dummy_word_212": 212, "dummy_word_213": 213, "dummy_word_214": 214, "dummy_word_215": 215, "dummy_word_216": 216, "dummy_word_217": 217, "dummy_word_218": 218, "dummy_word_219": 219, "dummy_word_220": 220, "dummy_word_221": 221, "dummy_word_222": 222, "dummy_word_223": 223, "dummy_word_224": 224, "dummy_word_225": 225, "dummy_word_226": 226, "dummy_word_227": 227, "dummy_word_228": 228, "dummy_word_229": 229, "dummy_word_230": 230, "dummy_word_231": 231, "dummy_word_232": 232, "dummy_word_233": 233, "dummy_word_234": 234, "dummy_word_235": 235, "dummy_word_236": 236, "dummy_word_237": 237, "dummy_word_238": 238, "dummy_word_239": 239, "dummy_word_240": 240, "dummy_word_241": 241, "dummy_word_242": 242, "dummy_word_243": 243, "dummy_word_244": 244, "dummy_word_245": 245, "dummy_word_246": 246, "dummy_word_247": 247, "dummy_word_248": 248, "dummy_word_249": 249, "dummy_word_250": 250, "dummy_word_251": 251, "dummy_word_252": 252, "dummy_word_253": 253, "dummy_word_254": 254, "dummy_word_255": 255, "dummy_word_256": 256, "dummy_word_257": 257, "dummy_word_258": 258, "dummy_word_259": 259, "dummy_word_260": 260, "dummy_word_261": 261, "dummy_word_262": 262, "dummy_word_263": 263, "dummy_word_264": 264, "dummy_word_265": 265, "dummy_word_266": 266, "dummy_word_267": 267, "dummy_word_268": 268, "dummy_word_269": 269, "dummy_word_270": 270, "dummy_word_271": 271, "dummy_word_272": 272, "dummy_word_273": 273, "dummy_word_274": 274, "dummy_word_275": 275, "dummy_word_276": 276, "dummy_word_277": 277, "dummy_word_278": 278, "dummy_word_279": 279, "dummy_word_280": 280, "dummy_word_281": 281, "dummy_word_282": 282, "dummy_word_283": 283, "dummy_word_284": 284, "dummy_word_285": 285, "dummy_word_286": 286, "dummy_word_287": 287, "dummy_word_288": 288, "dummy_word_289": 289, "dummy_word_290": 290, "dummy_word_291": 291, "dummy_word_292": 292, "dummy_word_293": 293, "dummy_word_294": 294, "dummy_word_295": 295, "dummy_word_296": 296, "dummy_word_297": 297, "dummy_word_298": 298, "dummy_word_299": 299, "dummy_word_300": 300, "dummy_word_301": 301, "dummy_word_302": 302, "dummy_word_303": 303, "dummy_word_304": 304, "dummy_word_305": 305, "dummy_word_306": 306, "dummy_word_307": 307, "dummy_word_308": 308, "dummy_word_309": 309, "dummy_word_310": 310, "dummy_word_311": 311, "dummy_word_312": 312, "dummy_word_313": 313, "dummy_word_314": 314, "dummy_word_315": 315, "dummy_word_316": 316, "dummy_word_317": 317, "dummy_word_318": 318, "dummy_word_319": 319, "dummy_word_320": 320, "dummy_word_321": 321, "dummy_word_322": 322, "dummy_word_323": 323, "dummy_word_324": 324, "dummy_word_325": 325, "dummy_word_326": 326, "dummy_word_327": 327, "dummy_word_328": 328, "dummy_word_329": 329, "dummy_word_330": 330, "dummy_word_331": 331, "dummy_word_332": 332, "dummy_word_333": 333, "dummy_word_334": 334, "dummy_word_335": 335, "dummy_word_336": 336, "dummy_word_337": 337, "dummy_word_338": 338, "dummy_word_339": 339, "dummy_word_340": 340, "dummy_word_341": 341, "dummy_word_342": 342, "dummy_word_343": 343, "dummy_word_344": 344, "dummy_word_345": 345, "dummy_word_346": 346, "dummy_word_347": 347, "dummy_word_348": 348, "dummy_word_349": 349, "dummy_word_350": 350, "dummy_word_351": 351, "dummy_word_352": 352, "dummy_word_353": 353, "dummy_word_354": 354, "dummy_word_355": 355, "dummy_word_356": 356, "dummy_word_357": 357, "dummy_word_358": 358, "dummy_word_359": 359, "dummy_word_360": 360, "dummy_word_361": 361, "dummy_word_362": 362, "dummy_word_363": 363, "dummy_word_364": 364, "dummy_word_365": 365, "dummy_word_366": 366, "dummy_word_367": 367, "dummy_word_368": 368, "dummy_word_369": 369, "dummy_word_370": 370, "dummy_word_371": 371, "dummy_word_372": 372, "dummy_word_373": 373, "dummy_word_374": 374, "dummy_word_375": 375, "dummy_word_376": 376, "dummy_word_377": 377, "dummy_word_378": 378, "dummy_word_379": 379, "dummy_word_380": 380, "dummy_word_381": 381, "dummy_word_382": 382, "dummy_word_383": 383, "dummy_word_384": 384, "dummy_word_385": 385, "dummy_word_386": 386, "dummy_word_387": 387, "dummy_word_388": 388, "dummy_word_389": 389, "dummy_word_390": 390, "dummy_word_391": 391, "dummy_word_392": 392, "dummy_word_393": 393, "dummy_word_394": 394, "dummy_word_395": 395, "dummy_word_396": 396, "dummy_word_397": 397, "dummy_word_398": 398, "dummy_word_399": 399, "dummy_word_400": 400, "dummy_word_401": 401, "dummy_word_402": 402, "dummy_word_403": 403, "dummy_word_404": 404, "dummy_word_405": 405, "dummy_word_406": 406, "dummy_word_407": 407, "dummy_word_408": 408, "dummy_word_409": 409, "dummy_word_410": 410, "dummy_word_411": 411, "dummy_word_412": 412, "dummy_word_413": 413, "dummy_word_414": 414, "dummy_word_415": 415, "dummy_word_416": 416, "dummy_word_417": 417, "dummy_word_418": 418, "dummy_word_419": 419, "dummy_word_420": 420, "dummy_word_421": 421, "dummy_word_422": 422, "dummy_word_423": 423, "dummy_word_424": 424, "dummy_word_425": 425, "dummy_word_426": 426, "dummy_word_427": 427, "dummy_word_428": 428, "dummy_word_429": 429, "dummy_word_430": 430, "dummy_word_431": 431, "dummy_word_432": 432, "dummy_word_433": 433, "dummy_word_434": 434, "dummy_word_435": 435, "dummy_word_436": 436, "dummy_word_437": 437, "dummy_word_438": 438, "dummy_word_439": 439, "dummy_word_440": 440, "dummy_word_441": 441, "dummy_word_442": 442, "dummy_word_443": 443, "dummy_word_444": 444, "dummy_word_445": 445, "dummy_word_446": 446, "dummy_word_447": 447, "dummy_word_448": 448, "dummy_word_449": 449, "dummy_word_450": 450, "dummy_word_451": 451, "dummy_word_452": 452, "dummy_word_453": 453, "dummy_word_454": 454, "dummy_word_455": 455, "dummy_word_456": 456, "dummy_word_457": 457, "dummy_word_458": 458, "dummy_word_459": 459, "dummy_word_460": 460, "dummy_word_461": 461, "dummy_word_462": 462, "dummy_word_463": 463, "dummy_word_464": 464, "dummy_word_465": 465, "dummy_word_466": 466, "dummy_word_467": 467, "dummy_word_468": 468, "dummy_word_469": 469, "dummy_word_470": 470, "dummy_word_471": 471, "dummy_word_472": 472, "dummy_word_473": 473, "dummy_word_474": 474, "dummy_word_475": 475, "dummy_word_476": 476, "dummy_word_477": 477, "dummy_word_478": 478, "dummy_word_479": 479, "dummy_word_480": 480, "dummy_word_481": 481, "dummy_word_482": 482, "dummy_word_483": 483, "dummy_word_484": 484, "dummy_word_485": 485, "dummy_word_486": 486, "dummy_word_487": 487, "dummy_word_488": 488, "dummy_word_489": 489, "dummy_word_490": 490, "dummy_word_491": 491, "dummy_word_492": 492, "dummy_word_493": 493, "dummy_word_494": 494, "dummy_word_495": 495, "dummy_word_496": 496, "dummy_word_497": 497, "dummy_word_498": 498, "dummy_word_499": 499, "dummy_word_500": 500, "dummy_word_501": 501, "dummy_word_502": 502, "dummy_word_503": 503, "dummy_word_504": 504, "dummy_word_505": 505, "dummy_word_506": 506, "dummy_word_507": 507, "dummy_word_508": 508, "dummy_word_509": 509, "dummy_word_510": 510, "dummy_word_511": 511, "dummy_word_512": 512, "dummy_word_513": 513, "dummy_word_514": 514, "dummy_word_515": 515, "dummy_word_516": 516, "dummy_word_517": 517, "dummy_word_518": 518, "dummy_word_519": 519, "dummy_word_520": 520, "dummy_word_521": 521, "dummy_word_522": 522, "dummy_word_523": 523, "dummy_word_524": 524, "dummy_word_525": 525, "dummy_word_526": 526, "dummy_word_527": 527, "dummy_word_528": 528, "dummy_word_529": 529, "dummy_word_530": 530, "dummy_word_531": 531, "dummy_word_532": 532, "dummy_word_533": 533, "dummy_word_534": 534, "dummy_word_535": 535, "dummy_word_536": 536, "dummy_word_537": 537, "dummy_word_538": 538, "dummy_word_539": 539, "dummy_word_540": 540, "dummy_word_541": 541, "dummy_word_542": 542, "dummy_word_543": 543, "dummy_word_544": 544, "dummy_word_545": 545, "dummy_word_546": 546, "dummy_word_547": 547, "dummy_word_548": 548, "dummy_word_549": 549, "dummy_word_550": 550, "dummy_word_551": 551, "dummy_word_552": 552, "dummy_word_553": 553, "dummy_word_554": 554, "dummy_word_555": 555, "dummy_word_556": 556, "dummy_word_557": 557, "dummy_word_558": 558, "dummy_word_559": 559, "dummy_word_560": 560, "dummy_word_561": 561, "dummy_word_562": 562, "dummy_word_563": 563, "dummy_word_564": 564, "dummy_word_565": 565, "dummy_word_566": 566, "dummy_word_567": 567, "dummy_word_568": 568, "dummy_word_569": 569, "dummy_word_570": 570, "dummy_word_571": 571, "dummy_word_572": 572, "dummy_word_573": 573, "dummy_word_574": 574, "dummy_word_575": 575, "dummy_word_576": 576, "dummy_word_577": 577, "dummy_word_578": 578, "dummy_word_579": 579, "dummy_word_580": 580, "dummy_word_581": 581, "dummy_word_582": 582, "dummy_word_583": 583, "dummy_word_584": 584, "dummy_word_585": 585, "dummy_word_586": 586, "dummy_word_587": 587, "dummy_word_588": 588, "dummy_word_589": 589, "dummy_word_590": 590, "dummy_word_591": 591, "dummy_word_592": 592, "dummy_word_593": 593, "dummy_word_594": 594, "dummy_word_595": 595, "dummy_word_596": 596, "dummy_word_597": 597, "dummy_word_598": 598, "dummy_word_599": 599, "dummy_word_600": 600, "dummy_word_601": 601, "dummy_word_602": 602, "dummy_word_603": 603, "dummy_word_604": 604, "dummy_word_605": 605, "dummy_word_606": 606, "dummy_word_607": 607, "dummy_word_608": 608, "dummy_word_609": 609, "dummy_word_610": 610, "dummy_word_611": 611, "dummy_word_612": 612, "dummy_word_613": 613, "dummy_word_614": 614, "dummy_word_615": 615, "dummy_word_616": 616, "dummy_word_617": 617, "dummy_word_618": 618, "dummy_word_619": 619, "dummy_word_620": 620, "dummy_word_621": 621, "dummy_word_622": 622, "dummy_word_623": 623, "dummy_word_624": 624, "dummy_word_625": 625, "dummy_word_626": 626, "dummy_word_627": 627, "dummy_word_628": 628, "dummy_word_629": 629, "dummy_word_630": 630, "dummy_word_631": 631, "dummy_word_632": 632, "dummy_word_633": 633, "dummy_word_634": 634, "dummy_word_635": 635, "dummy_word_636": 636, "dummy_word_637": 637, "dummy_word_638": 638, "dummy_word_639": 639, "dummy_word_640": 640, "dummy_word_641": 641, "dummy_word_642": 642, "dummy_word_643": 643, "dummy_word_644": 644, "dummy_word_645": 645, "dummy_word_646": 646, "dummy_word_647": 647, "dummy_word_648": 648, "dummy_word_649": 649, "dummy_word_650": 650, "dummy_word_651": 651, "dummy_word_652": 652, "dummy_word_653": 653, "dummy_word_654": 654, "dummy_word_655": 655, "dummy_word_656": 656, "dummy_word_657": 657, "dummy_word_658": 658, "dummy_word_659": 659, "dummy_word_660": 660, "dummy_word_661": 661, "dummy_word_662": 662, "dummy_word_663": 663, "dummy_word_664": 664, "dummy_word_665": 665, "dummy_word_666": 666, "dummy_word_667": 667, "dummy_word_668": 668, "dummy_word_669": 669, "dummy_word_670": 670, "dummy_word_671": 671, "dummy_word_672": 672, "dummy_word_673": 673, "dummy_word_674": 674, "dummy_word_675": 675, "dummy_word_676": 676, "dummy_word_677": 677, "dummy_word_678": 678, "dummy_word_679": 679, "dummy_word_680": 680, "dummy_word_681": 681, "dummy_word_682": 682, "dummy_word_683": 683, "dummy_word_684": 684, "dummy_word_685": 685, "dummy_word_686": 686, "dummy_word_687": 687, "dummy_word_688": 688, "dummy_word_689": 689, "dummy_word_690": 690, "dummy_word_691": 691, "dummy_word_692": 692, "dummy_word_693": 693, "dummy_word_694": 694, "dummy_word_695": 695, "dummy_word_696": 696, "dummy_word_697": 697, "dummy_word_698": 698, "dummy_word_699": 699, "dummy_word_700": 700, "dummy_word_701": 701, "dummy_word_702": 702, "dummy_word_703": 703, "dummy_word_704": 704, "dummy_word_705": 705, "dummy_word_706": 706, "dummy_word_707": 707, "dummy_word_708": 708, "dummy_word_709": 709, "dummy_word_710": 710, "dummy_word_711": 711, "dummy_word_712": 712, "dummy_word_713": 713, "dummy_word_714": 714, "dummy_word_715": 715, "dummy_word_716": 716, "dummy_word_717": 717, "dummy_word_718": 718, "dummy_word_719": 719, "dummy_word_720": 720, "dummy_word_721": 721, "dummy_word_722": 722, "dummy_word_723": 723, "dummy_word_724": 724, "dummy_word_725": 725, "dummy_word_726": 726, "dummy_word_727": 727, "dummy_word_728": 728, "dummy_word_729": 729, "dummy_word_730": 730, "dummy_word_731": 731, "dummy_word_732": 732, "dummy_word_733": 733, "dummy_word_734": 734, "dummy_word_735": 735, "dummy_word_736": 736, "dummy_word_737": 737, "dummy_word_738": 738, "dummy_word_739": 739, "dummy_word_740": 740, "dummy_word_741": 741, "dummy_word_742": 742, "dummy_word_743": 743, "dummy_word_744": 744, "dummy_word_745": 745, "dummy_word_746": 746, "dummy_word_747": 747, "dummy_word_748": 748, "dummy_word_749": 749, "dummy_word_750": 750, "dummy_word_751": 751, "dummy_word_752": 752, "dummy_word_753": 753, "dummy_word_754": 754, "dummy_word_755": 755, "dummy_word_756": 756, "dummy_word_757": 757, "dummy_word_758": 758, "dummy_word_759": 759, "dummy_word_760": 760, "dummy_word_761": 761, "dummy_word_762": 762, "dummy_word_763": 763, "dummy_word_764": 764, "dummy_word_765": 765, "dummy_word_766": 766, "dummy_word_767": 767, "dummy_word_768": 768, "dummy_word_769": 769, "dummy_word_770": 770, "dummy_word_771": 771, "dummy_word_772": 772, "dummy_word_773": 773, "dummy_word_774": 774, "dummy_word_775": 775, "dummy_word_776": 776, "dummy_word_777": 777, "dummy_word_778": 778, "dummy_word_779": 779, "dummy_word_780": 780, "dummy_word_781": 781, "dummy_word_782": 782, "dummy_word_783": 783, "dummy_word_784": 784, "dummy_word_785": 785, "dummy_word_786": 786, "dummy_word_787": 787, "dummy_word_788": 788, "dummy_word_789": 789, "dummy_word_790": 790, "dummy_word_791": 791, "dummy_word_792": 792, "dummy_word_793": 793, "dummy_word_794": 794, "dummy_word_795": 795, "dummy_word_796": 796, "dummy_word_797": 797, "dummy_word_798": 798, "dummy_word_799": 799, "dummy_word_800": 800, "dummy_word_801": 801, "dummy_word_802": 802, "dummy_word_803": 803, "dummy_word_804": 804, "dummy_word_805": 805, "dummy_word_806": 806, "dummy_word_807": 807, "dummy_word_808": 808, "dummy_word_809": 809, "dummy_word_810": 810, "dummy_word_811": 811, "dummy_word_812": 812, "dummy_word_813": 813, "dummy_word_814": 814, "dummy_word_815": 815, "dummy_word_816": 816, "dummy_word_817": 817, "dummy_word_818": 818, "dummy_word_819": 819, "dummy_word_820": 820, "dummy_word_821": 821, "dummy_word_822": 822, "dummy_word_823": 823, "dummy_word_824": 824, "dummy_word_825": 825, "dummy_word_826": 826, "dummy_word_827": 827, "dummy_word_828": 828, "dummy_word_829": 829, "dummy_word_830": 830, "dummy_word_831": 831, "dummy_word_832": 832, "dummy_word_833": 833, "dummy_word_834": 834, "dummy_word_835": 835, "dummy_word_836": 836, "dummy_word_837": 837, "dummy_word_838": 838, "dummy_word_839": 839, "dummy_word_840": 840, "dummy_word_841": 841, "dummy_word_842": 842, "dummy_word_843": 843, "dummy_word_844": 844, "dummy_word_845": 845, "dummy_word_846": 846, "dummy_word_847": 847, "dummy_word_848": 848, "dummy_word_849": 849, "dummy_word_850": 850, "dummy_word_851": 851, "dummy_word_852": 852, "dummy_word_853": 853, "dummy_word_854": 854, "dummy_word_855": 855, "dummy_word_856": 856, "dummy_word_857": 857, "dummy_word_858": 858, "dummy_word_859": 859, "dummy_word_860": 860, "dummy_word_861": 861, "dummy_word_862": 862, "dummy_word_863": 863, "dummy_word_864": 864, "dummy_word_865": 865, "dummy_word_866": 866, "dummy_word_867": 867, "dummy_word_868": 868, "dummy_word_869": 869, "dummy_word_870": 870, "dummy_word_871": 871, "dummy_word_872": 872, "dummy_word_873": 873, "dummy_word_874": 874, "dummy_word_875": 875, "dummy_word_876": 876, "dummy_word_877": 877, "dummy_word_878": 878, "dummy_word_879": 879, "dummy_word_880": 880, "dummy_word_881": 881, "dummy_word_882": 882, "dummy_word_883": 883, "dummy_word_884": 884, "dummy_word_885": 885, "dummy_word_886": 886, "dummy_word_887": 887, "dummy_word_888": 888, "dummy_word_889": 889, "dummy_word_890": 890, "dummy_word_891": 891, "dummy_word_892": 892, "dummy_word_893": 893, "dummy_word_894": 894, "dummy_word_895": 895, "dummy_word_896": 896, "dummy_word_897": 897, "dummy_word_898": 898, "dummy_word_899": 899, "dummy_word_900": 900, "dummy_word_901": 901, "dummy_word_902": 902, "dummy_word_903": 903, "dummy_word_904": 904, "dummy_word_905": 905, "dummy_word_906": 906, "dummy_word_907": 907, "dummy_word_908": 908, "dummy_word_909": 909, "dummy_word_910": 910, "dummy_word_911": 911, "dummy_word_912": 912, "dummy_word_913": 913, "dummy_word_914": 914, "dummy_word_915": 915, "dummy_word_916": 916, "dummy_word_917": 917, "dummy_word_918": 918, "dummy_word_919": 919, "dummy_word_920": 920, "dummy_word_921": 921, "dummy_word_922": 922, "dummy_word_923": 923, "dummy_word_924": 924, "dummy_word_925": 925, "dummy_word_926": 926, "dummy_word_927": 927, "dummy_word_928": 928, "dummy_word_929": 929, "dummy_word_930": 930, "dummy_word_931": 931, "dummy_word_932": 932, "dummy_word_933": 933, "dummy_word_934": 934, "dummy_word_935": 935, "dummy_word_936": 936, "dummy_word_937": 937, "dummy_word_938": 938, "dummy_word_939": 939, "dummy_word_940": 940, "dummy_word_941": 941, "dummy_word_942": 942, "dummy_word_943": 943, "dummy_word_944": 944, "dummy_word_945": 945, "dummy_word_946": 946, "dummy_word_947": 947, "dummy_word_948": 948, "dummy_word_949": 949, "dummy_word_950": 950, "dummy_word_951": 951, "dummy_word_952": 952, "dummy_word_953": 953, "dummy_word_954": 954, "dummy_word_955": 955, "dummy_word_956": 956, "dummy_word_957": 957, "dummy_word_958": 958, "dummy_word_959": 959, "dummy_word_960": 960, "dummy_word_961": 961, "dummy_word_962": 962, "dummy_word_963": 963, "dummy_word_964": 964, "dummy_word_965": 965, "dummy_word_966": 966, "dummy_word_967": 967, "dummy_word_968": 968, "dummy_word_969": 969, "dummy_word_970": 970, "dummy_word_971": 971, "dummy_word_972": 972, "dummy_word_973": 973, "dummy_word_974": 974, "dummy_word_975": 975, "dummy_word_976": 976, "dummy_word_977": 977, "dummy_word_978": 978, "dummy_word_979": 979, "dummy_word_980": 980, "dummy_word_981": 981, "dummy_word_982": 982, "dummy_word_983": 983, "dummy_word_984": 984, "dummy_word_985": 985, "dummy_word_986": 986, "dummy_word_987": 987, "dummy_word_988": 988, "dummy_word_989": 989, "dummy_word_990": 990, "dummy_word_991": 991, "dummy_word_992": 992, "dummy_word_993": 993, "dummy_word_994": 994, "dummy_word_995": 995, "dummy_word_996": 996, "dummy_word_997": 997, "dummy_word_998": 998, "dummy_word_999": 999, "dummy_word_1000": 1000, "dummy_word_1001": 1001, "dummy_word_1002": 1002, "dummy_word_1003": 1003, "dummy_word_1004": 1004, "dummy_word_1005": 1005, "dummy_word_1006": 1006, "dummy_word_1007": 1007, "dummy_word_1008": 1008, "dummy_word_1009": 1009, "dummy_word_1010": 1010, "dummy_word_1011": 1011, "dummy_word_1012": 1012, "dummy_word_1013": 1013, "dummy_word_1014": 1014, "dummy_word_1015": 1015, "dummy_word_1016": 1016, "dummy_word_1017": 1017, "dummy_word_1018": 1018, "dummy_word_1019": 1019, "dummy_word_1020": 1020, "dummy_word_1021": 1021, "dummy_word_1022": 1022, "dummy_word_1023": 1023, "dummy_word_1024": 1024, "dummy_word_1025": 1025, "dummy_word_1026": 1026, "dummy_word_1027": 1027, "dummy_word_1028": 1028, "dummy_word_1029": 1029, "dummy_word_1030": 1030, "dummy_word_1031": 1031, "dummy_word_1032": 1032, "dummy_word_1033": 1033, "dummy_word_1034": 1034, "dummy_word_1035": 1035, "dummy_word_1036": 1036, "dummy_word_1037": 1037, "dummy_word_1038": 1038, "dummy_word_1039": 1039, "dummy_word_1040": 1040, "dummy_word_1041": 1041, "dummy_word_1042": 1042, "dummy_word_1043": 1043, "dummy_word_1044": 1044, "dummy_word_1045": 1045, "dummy_word_1046": 1046, "dummy_word_1047": 1047, "dummy_word_1048": 1048, "dummy_word_1049": 1049, "dummy_word_1050": 1050, "dummy_word_1051": 1051, "dummy_word_1052": 1052, "dummy_word_1053": 1053, "dummy_word_1054": 1054, "dummy_word_1055": 1055, "dummy_word_1056": 1056, "dummy_word_1057": 1057, "dummy_word_1058": 1058, "dummy_word_1059": 1059, "dummy_word_1060": 1060, "dummy_word_1061": 1061, "dummy_word_1062": 1062, "dummy_word_1063": 1063, "dummy_word_1064": 1064, "dummy_word_1065": 1065, "dummy_word_1066": 1066, "dummy_word_1067": 1067, "dummy_word_1068": 1068, "dummy_word_1069": 1069, "dummy_word_1070": 1070, "dummy_word_1071": 1071, "dummy_word_1072": 1072, "dummy_word_1073": 1073, "dummy_word_1074": 1074, "dummy_word_1075": 1075, "dummy_word_1076": 1076, "dummy_word_1077": 1077, "dummy_word_1078": 1078, "dummy_word_1079": 1079, "dummy_word_1080": 1080, "dummy_word_1081": 1081, "dummy_word_1082": 1082, "dummy_word_1083": 1083, "dummy_word_1084": 1084, "dummy_word_1085": 1085, "dummy_word_1086": 1086, "dummy_word_1087": 1087, "dummy_word_1088": 1088, "dummy_word_1089": 1089, "dummy_word_1090": 1090, "dummy_word_1091": 1091, "dummy_word_1092": 1092, "dummy_word_1093": 1093, "dummy_word_1094": 1094, "dummy_word_1095": 1095, "dummy_word_1096": 1096, "dummy_word_1097": 1097, "dummy_word_1098": 1098, "dummy_word_1099": 1099, "dummy_word_1100": 1100, "dummy_word_1101": 1101, "dummy_word_1102": 1102, "dummy_word_1103": 1103, "dummy_word_1104": 1104, "dummy_word_1105": 1105, "dummy_word_1106": 1106, "dummy_word_1107": 1107, "dummy_word_1108": 1108, "dummy_word_1109": 1109, "dummy_word_1110": 1110, "dummy_word_1111": 1111, "dummy_word_1112": 1112, "dummy_word_1113": 1113, "dummy_word_1114": 1114, "dummy_word_1115": 1115, "dummy_word_1116": 1116, "dummy_word_1117": 1117, "dummy_word_1118": 1118, "dummy_word_1119": 1119, "dummy_word_1120": 1120, "dummy_word_1121": 1121, "dummy_word_1122": 1122, "dummy_word_1123": 1123, "dummy_word_1124": 1124, "dummy_word_1125": 1125, "dummy_word_1126": 1126, "dummy_word_1127": 1127, "dummy_word_1128": 1128, "dummy_word_1129": 1129, "dummy_word_1130": 1130, "dummy_word_1131": 1131, "dummy_word_1132": 1132, "dummy_word_1133": 1133, "dummy_word_1134": 1134, "dummy_word_1135": 1135, "dummy_word_1136": 1136, "dummy_word_1137": 1137, "dummy_word_1138": 1138, "dummy_word_1139": 1139, "dummy_word_1140": 1140, "dummy_word_1141": 1141, "dummy_word_1142": 1142, "dummy_word_1143": 1143, "dummy_word_1144": 1144, "dummy_word_1145": 1145, "dummy_word_1146": 1146, "dummy_word_1147": 1147, "dummy_word_1148": 1148, "dummy_word_1149": 1149, "dummy_word_1150": 1150, "dummy_word_1151": 1151, "dummy_word_1152": 1152, "dummy_word_1153": 1153, "dummy_word_1154": 1154, "dummy_word_1155": 1155, "dummy_word_1156": 1156, "dummy_word_1157": 1157, "dummy_word_1158": 1158, "dummy_word_1159": 1159, "dummy_word_1160": 1160, "dummy_word_1161": 1161, "dummy_word_1162": 1162, "dummy_word_1163": 1163, "dummy_word_1164": 1164, "dummy_word_1165": 1165, "dummy_word_1166": 1166, "dummy_word_1167": 1167, "dummy_word_1168": 1168, "dummy_word_1169": 1169, "dummy_word_1170": 1170, "dummy_word_1171": 1171, "dummy_word_1172": 1172, "dummy_word_1173": 1173, "dummy_word_1174": 1174, "dummy_word_1175": 1175, "dummy_word_1176": 1176, "dummy_word_1177": 1177, "dummy_word_1178": 1178, "dummy_word_1179": 1179, "dummy_word_1180": 1180, "dummy_word_1181": 1181, "dummy_word_1182": 1182, "dummy_word_1183": 1183, "dummy_word_1184": 1184, "dummy_word_1185": 1185, "dummy_word_1186": 1186, "dummy_word_1187": 1187, "dummy_word_1188": 1188, "dummy_word_1189": 1189, "dummy_word_1190": 1190, "dummy_word_1191": 1191, "dummy_word_1192": 1192, "dummy_word_1193": 1193, "dummy_word_1194": 1194, "dummy_word_1195": 1195, "dummy_word_1196": 1196, "dummy_word_1197": 1197, "dummy_word_1198": 1198, "dummy_word_1199": 1199, "dummy_word_1200": 1200, "dummy_word_1201": 1201, "dummy_word_1202": 1202, "dummy_word_1203": 1203, "dummy_word_1204": 1204, "dummy_word_1205": 1205, "dummy_word_1206": 1206, "dummy_word_1207": 1207, "dummy_word_1208": 1208, "dummy_word_1209": 1209, "dummy_word_1210": 1210, "dummy_word_1211": 1211, "dummy_word_1212": 1212, "dummy_word_1213": 1213, "dummy_word_1214": 1214, "dummy_word_1215": 1215, "dummy_word_1216": 1216, "dummy_word_1217": 1217, "dummy_word_1218": 1218, "dummy_word_1219": 1219, "dummy_word_1220": 1220, "dummy_word_1221": 1221, "dummy_word_1222": 1222, "dummy_word_1223": 1223, "dummy_word_1224": 1224, "dummy_word_1225": 1225, "dummy_word_1226": 1226, "dummy_word_1227": 1227, "dummy_word_1228": 1228, "dummy_word_1229": 1229, "dummy_word_1230": 1230, "dummy_word_1231": 1231, "dummy_word_1232": 1232, "dummy_word_1233": 1233, "dummy_word_1234": 1234, "dummy_word_1235": 1235, "dummy_word_1236": 1236, "dummy_word_1237": 1237, "dummy_word_1238": 1238, "dummy_word_1239": 1239, "dummy_word_1240": 1240, "dummy_word_1241": 1241, "dummy_word_1242": 1242, "dummy_word_1243": 1243, "dummy_word_1244": 1244, "dummy_word_1245": 1245, "dummy_word_1246": 1246, "dummy_word_1247": 1247, "dummy_word_1248": 1248, "dummy_word_1249": 1249, "dummy_word_1250": 1250, "dummy_word_1251": 1251, "dummy_word_1252": 1252, "dummy_word_1253": 1253, "dummy_word_1254": 1254, "dummy_word_1255": 1255, "dummy_word_1256": 1256, "dummy_word_1257": 1257, "dummy_word_1258": 1258, "dummy_word_1259": 1259, "dummy_word_1260": 1260, "dummy_word_1261": 1261, "dummy_word_1262": 1262, "dummy_word_1263": 1263, "dummy_word_1264": 1264, "dummy_word_1265": 1265, "dummy_word_1266": 1266, "dummy_word_1267": 1267, "dummy_word_1268": 1268, "dummy_word_1269": 1269, "dummy_word_1270": 1270, "dummy_word_1271": 1271, "dummy_word_1272": 1272, "dummy_word_1273": 1273, "dummy_word_1274": 1274, "dummy_word_1275": 1275, "dummy_word_1276": 1276, "dummy_word_1277": 1277, "dummy_word_1278": 1278, "dummy_word_1279": 1279, "dummy_word_1280": 1280, "dummy_word_1281": 1281, "dummy_word_1282": 1282, "dummy_word_1283": 1283, "dummy_word_1284": 1284, "dummy_word_1285": 1285, "dummy_word_1286": 1286, "dummy_word_1287": 1287, "dummy_word_1288": 1288, "dummy_word_1289": 1289, "dummy_word_1290": 1290, "dummy_word_1291": 1291, "dummy_word_1292": 1292, "dummy_word_1293": 1293, "dummy_word_1294": 1294, "dummy_word_1295": 1295, "dummy_word_1296": 1296, "dummy_word_1297": 1297, "dummy_word_1298": 1298, "dummy_word_1299": 1299, "dummy_word_1300": 1300, "dummy_word_1301": 1301, "dummy_word_1302": 1302, "dummy_word_1303": 1303, "dummy_word_1304": 1304, "dummy_word_1305": 1305, "dummy_word_1306": 1306, "dummy_word_1307": 1307, "dummy_word_1308": 1308, "dummy_word_1309": 1309, "dummy_word_1310": 1310, "dummy_word_1311": 1311, "dummy_word_1312": 1312, "dummy_word_1313": 1313, "dummy_word_1314": 1314, "dummy_word_1315": 1315, "dummy_word_1316": 1316, "dummy_word_1317": 1317, "dummy_word_1318": 1318, "dummy_word_1319": 1319, "dummy_word_1320": 1320, "dummy_word_1321": 1321, "dummy_word_1322": 1322, "dummy_word_1323": 1323, "dummy_word_1324": 1324, "dummy_word_1325": 1325, "dummy_word_1326": 1326, "dummy_word_1327": 1327, "dummy_word_1328": 1328, "dummy_word_1329": 1329, "dummy_word_1330": 1330, "dummy_word_1331": 1331, "dummy_word_1332": 1332, "dummy_word_1333": 1333, "dummy_word_1334": 1334, "dummy_word_1335": 1335, "dummy_word_1336": 1336, "dummy_word_1337": 1337, "dummy_word_1338": 1338, "dummy_word_1339": 1339, "dummy_word_1340": 1340, "dummy_word_1341": 1341, "dummy_word_1342": 1342, "dummy_word_1343": 1343, "dummy_word_1344": 1344, "dummy_word_1345": 1345, "dummy_word_1346": 1346, "dummy_word_1347": 1347, "dummy_word_1348": 1348, "dummy_word_1349": 1349, "dummy_word_1350": 1350, "dummy_word_1351": 1351, "dummy_word_1352": 1352, "dummy_word_1353": 1353, "dummy_word_1354": 1354, "dummy_word_1355": 1355, "dummy_word_1356": 1356, "dummy_word_1357": 1357, "dummy_word_1358": 1358, "dummy_word_1359": 1359, "dummy_word_1360": 1360, "dummy_word_1361": 1361, "dummy_word_1362": 1362, "dummy_word_1363": 1363, "dummy_word_1364": 1364, "dummy_word_1365": 1365, "dummy_word_1366": 1366, "dummy_word_1367": 1367, "dummy_word_1368": 1368, "dummy_word_1369": 1369, "dummy_word_1370": 1370, "dummy_word_1371": 1371, "dummy_word_1372": 1372, "dummy_word_1373": 1373, "dummy_word_1374": 1374, "dummy_word_1375": 1375, "dummy_word_1376": 1376, "dummy_word_1377": 1377, "dummy_word_1378": 1378, "dummy_word_1379": 1379, "dummy_word_1380": 1380, "dummy_word_1381": 1381, "dummy_word_1382": 1382, "dummy_word_1383": 1383, "dummy_word_1384": 1384, "dummy_word_1385": 1385, "dummy_word_1386": 1386, "dummy_word_1387": 1387, "dummy_word_1388": 1388, "dummy_word_1389": 1389, "dummy_word_1390": 1390, "dummy_word_1391": 1391, "dummy_word_1392": 1392, "dummy_word_1393": 1393, "dummy_word_1394": 1394, "dummy_word_1395": 1395, "dummy_word_1396": 1396, "dummy_word_1397": 1397, "dummy_word_1398": 1398, "dummy_word_1399": 1399, "dummy_word_1400": 1400, "dummy_word_1401": 1401, "dummy_word_1402": 1402, "dummy_word_1403": 1403, "dummy_word_1404": 1404, "dummy_word_1405": 1405, "dummy_word_1406": 1406, "dummy_word_1407": 1407, "dummy_word_1408": 1408, "dummy_word_1409": 1409, "dummy_word_1410": 1410, "dummy_word_1411": 1411, "dummy_word_1412": 1412, "dummy_word_1413": 1413, "dummy_word_1414": 1414, "dummy_word_1415": 1415, "dummy_word_1416": 1416, "dummy_word_1417": 1417, "dummy_word_1418": 1418, "dummy_word_1419": 1419, "dummy_word_1420": 1420, "dummy_word_1421": 1421, "dummy_word_1422": 1422, "dummy_word_1423": 1423, "dummy_word_1424": 1424, "dummy_word_1425": 1425, "dummy_word_1426": 1426, "dummy_word_1427": 1427, "dummy_word_1428": 1428, "dummy_word_1429": 1429, "dummy_word_1430": 1430, "dummy_word_1431": 1431, "dummy_word_1432": 1432, "dummy_word_1433": 1433, "dummy_word_1434": 1434, "dummy_word_1435": 1435, "dummy_word_1436": 1436, "dummy_word_1437": 1437, "dummy_word_1438": 1438, "dummy_word_1439": 1439, "dummy_word_1440": 1440, "dummy_word_1441": 1441, "dummy_word_1442": 1442, "dummy_word_1443": 1443, "dummy_word_1444": 1444, "dummy_word_1445": 1445, "dummy_word_1446": 1446, "dummy_word_1447": 1447, "dummy_word_1448": 1448, "dummy_word_1449": 1449, "dummy_word_1450": 1450, "dummy_word_1451": 1451, "dummy_word_1452": 1452, "dummy_word_1453": 1453, "dummy_word_1454": 1454, "dummy_word_1455": 1455, "dummy_word_1456": 1456, "dummy_word_1457": 1457, "dummy_word_1458": 1458, "dummy_word_1459": 1459, "dummy_word_1460": 1460, "dummy_word_1461": 1461, "dummy_word_1462": 1462, "dummy_word_1463": 1463, "dummy_word_1464": 1464, "dummy_word_1465": 1465, "dummy_word_1466": 1466, "dummy_word_1467": 1467, "dummy_word_1468": 1468, "dummy_word_1469": 1469, "dummy_word_1470": 1470, "dummy_word_1471": 1471, "dummy_word_1472": 1472, "dummy_word_1473": 1473, "dummy_word_1474": 1474, "dummy_word_1475": 1475, "dummy_word_1476": 1476, "dummy_word_1477": 1477, "dummy_word_1478": 1478, "dummy_word_1479": 1479, "dummy_word_1480": 1480, "dummy_word_1481": 1481, "dummy_word_1482": 1482, "dummy_word_1483": 1483, "dummy_word_1484": 1484, "dummy_word_1485": 1485, "dummy_word_1486": 1486, "dummy_word_1487": 1487, "dummy_word_1488": 1488, "dummy_word_1489": 1489, "dummy_word_1490": 1490, "dummy_word_1491": 1491, "dummy_word_1492": 1492, "dummy_word_1493": 1493, "dummy_word_1494": 1494, "dummy_word_1495": 1495, "dummy_word_1496": 1496, "dummy_word_1497": 1497, "dummy_word_1498": 1498, "dummy_word_1499": 1499, "dummy_word_1500": 1500, "dummy_word_1501": 1501, "dummy_word_1502": 1502, "dummy_word_1503": 1503, "dummy_word_1504": 1504, "dummy_word_1505": 1505, "dummy_word_1506": 1506, "dummy_word_1507": 1507, "dummy_word_1508": 1508, "dummy_word_1509": 1509, "dummy_word_1510": 1510, "dummy_word_1511": 1511, "dummy_word_1512": 1512, "dummy_word_1513": 1513, "dummy_word_1514": 1514, "dummy_word_1515": 1515, "dummy_word_1516": 1516, "dummy_word_1517": 1517, "dummy_word_1518": 1518, "dummy_word_1519": 1519, "dummy_word_1520": 1520, "dummy_word_1521": 1521, "dummy_word_1522": 1522, "dummy_word_1523": 1523, "dummy_word_1524": 1524, "dummy_word_1525": 1525, "dummy_word_1526": 1526, "dummy_word_1527": 1527, "dummy_word_1528": 1528, "dummy_word_1529": 1529, "dummy_word_1530": 1530, "dummy_word_1531": 1531, "dummy_word_1532": 1532, "dummy_word_1533": 1533, "dummy_word_1534": 1534, "dummy_word_1535": 1535, "dummy_word_1536": 1536, "dummy_word_1537": 1537, "dummy_word_1538": 1538, "dummy_word_1539": 1539, "dummy_word_1540": 1540, "dummy_word_1541": 1541, "dummy_word_1542": 1542, "dummy_word_1543": 1543, "dummy_word_1544": 1544, "dummy_word_1545": 1545, "dummy_word_1546": 1546, "dummy_word_1547": 1547, "dummy_word_1548": 1548, "dummy_word_1549": 1549, "dummy_word_1550": 1550, "dummy_word_1551": 1551, "dummy_word_1552": 1552, "dummy_word_1553": 1553, "dummy_word_1554": 1554, "dummy_word_1555": 1555, "dummy_word_1556": 1556, "dummy_word_1557": 1557, "dummy_word_1558": 1558, "dummy_word_1559": 1559, "dummy_word_1560": 1560, "dummy_word_1561": 1561, "dummy_word_1562": 1562, "dummy_word_1563": 1563, "dummy_word_1564": 1564, "dummy_word_1565": 1565, "dummy_word_1566": 1566, "dummy_word_1567": 1567, "dummy_word_1568": 1568, "dummy_word_1569": 1569, "dummy_word_1570": 1570, "dummy_word_1571": 1571, "dummy_word_1572": 1572, "dummy_word_1573": 1573, "dummy_word_1574": 1574, "dummy_word_1575": 1575, "dummy_word_1576": 1576, "dummy_word_1577": 1577, "dummy_word_1578": 1578, "dummy_word_1579": 1579, "dummy_word_1580": 1580, "dummy_word_1581": 1581, "dummy_word_1582": 1582, "dummy_word_1583": 1583, "dummy_word_1584": 1584, "dummy_word_1585": 1585, "dummy_word_1586": 1586, "dummy_word_1587": 1587, "dummy_word_1588": 1588, "dummy_word_1589": 1589, "dummy_word_1590": 1590, "dummy_word_1591": 1591, "dummy_word_1592": 1592, "dummy_word_1593": 1593, "dummy_word_1594": 1594, "dummy_word_1595": 1595, "dummy_word_1596": 1596, "dummy_word_1597": 1597, "dummy_word_1598": 1598, "dummy_word_1599": 1599, "dummy_word_1600": 1600, "dummy_word_1601": 1601, "dummy_word_1602": 1602, "dummy_word_1603": 1603, "dummy_word_1604": 1604, "dummy_word_1605": 1605, "dummy_word_1606": 1606, "dummy_word_1607": 1607, "dummy_word_1608": 1608, "dummy_word_1609": 1609, "dummy_word_1610": 1610, "dummy_word_1611": 1611, "dummy_word_1612": 1612, "dummy_word_1613": 1613, "dummy_word_1614": 1614, "dummy_word_1615": 1615, "dummy_word_1616": 1616, "dummy_word_1617": 1617, "dummy_word_1618": 1618, "dummy_word_1619": 1619, "dummy_word_1620": 1620, "dummy_word_1621": 1621, "dummy_word_1622": 1622, "dummy_word_1623": 1623, "dummy_word_1624": 1624, "dummy_word_1625": 1625, "dummy_word_1626": 1626, "dummy_word_1627": 1627, "dummy_word_1628": 1628, "dummy_word_1629": 1629, "dummy_word_1630": 1630, "dummy_word_1631": 1631, "dummy_word_1632": 1632, "dummy_word_1633": 1633, "dummy_word_1634": 1634, "dummy_word_1635": 1635, "dummy_word_1636": 1636, "dummy_word_1637": 1637, "dummy_word_1638": 1638, "dummy_word_1639": 1639, "dummy_word_1640": 1640, "dummy_word_1641": 1641, "dummy_word_1642": 1642, "dummy_word_1643": 1643, "dummy_word_1644": 1644, "dummy_word_1645": 1645, "dummy_word_1646": 1646, "dummy_word_1647": 1647, "dummy_word_1648": 1648, "dummy_word_1649": 1649, "dummy_word_1650": 1650, "dummy_word_1651": 1651, "dummy_word_1652": 1652, "dummy_word_1653": 1653, "dummy_word_1654": 1654, "dummy_word_1655": 1655, "dummy_word_1656": 1656, "dummy_word_1657": 1657, "dummy_word_1658": 1658, "dummy_word_1659": 1659, "dummy_word_1660": 1660, "dummy_word_1661": 1661, "dummy_word_1662": 1662, "dummy_word_1663": 1663, "dummy_word_1664": 1664, "dummy_word_1665": 1665, "dummy_word_1666": 1666, "dummy_word_1667": 1667, "dummy_word_1668": 1668, "dummy_word_1669": 1669, "dummy_word_1670": 1670, "dummy_word_1671": 1671, "dummy_word_1672": 1672, "dummy_word_1673": 1673, "dummy_word_1674": 1674, "dummy_word_1675": 1675, "dummy_word_1676": 1676, "dummy_word_1677": 1677, "dummy_word_1678": 1678, "dummy_word_1679": 1679, "dummy_word_1680": 1680, "dummy_word_1681": 1681, "dummy_word_1682": 1682, "dummy_word_1683": 1683, "dummy_word_1684": 1684, "dummy_word_1685": 1685, "dummy_word_1686": 1686, "dummy_word_1687": 1687, "dummy_word_1688": 1688, "dummy_word_1689": 1689, "dummy_word_1690": 1690, "dummy_word_1691": 1691, "dummy_word_1692": 1692, "dummy_word_1693": 1693, "dummy_word_1694": 1694, "dummy_word_1695": 1695, "dummy_word_1696": 1696, "dummy_word_1697": 1697, "dummy_word_1698": 1698, "dummy_word_1699": 1699, "dummy_word_1700": 1700, "dummy_word_1701": 1701, "dummy_word_1702": 1702, "dummy_word_1703": 1703, "dummy_word_1704": 1704, "dummy_word_1705": 1705, "dummy_word_1706": 1706, "dummy_word_1707": 1707, "dummy_word_1708": 1708, "dummy_word_1709": 1709, "dummy_word_1710": 1710, "dummy_word_1711": 1711, "dummy_word_1712": 1712, "dummy_word_1713": 1713, "dummy_word_1714": 1714, "dummy_word_1715": 1715, "dummy_word_1716": 1716, "dummy_word_1717": 1717, "dummy_word_1718": 1718, "dummy_word_1719": 1719, "dummy_word_1720": 1720, "dummy_word_1721": 1721, "dummy_word_1722": 1722, "dummy_word_1723": 1723, "dummy_word_1724": 1724, "dummy_word_1725": 1725, "dummy_word_1726": 1726, "dummy_word_1727": 1727, "dummy_word_1728": 1728, "dummy_word_1729": 1729, "dummy_word_1730": 1730, "dummy_word_1731": 1731, "dummy_word_1732": 1732, "dummy_word_1733": 1733, "dummy_word_1734": 1734, "dummy_word_1735": 1735, "dummy_word_1736": 1736, "dummy_word_1737": 1737, "dummy_word_1738": 1738, "dummy_word_1739": 1739, "dummy_word_1740": 1740, "dummy_word_1741": 1741, "dummy_word_1742": 1742, "dummy_word_1743": 1743, "dummy_word_1744": 1744, "dummy_word_1745": 1745, "dummy_word_1746": 1746, "dummy_word_1747": 1747, "dummy_word_1748": 1748, "dummy_word_1749": 1749, "dummy_word_1750": 1750, "dummy_word_1751": 1751, "dummy_word_1752": 1752, "dummy_word_1753": 1753, "dummy_word_1754": 1754, "dummy_word_1755": 1755, "dummy_word_1756": 1756, "dummy_word_1757": 1757, "dummy_word_1758": 1758, "dummy_word_1759": 1759, "dummy_word_1760": 1760, "dummy_word_1761": 1761, "dummy_word_1762": 1762, "dummy_word_1763": 1763, "dummy_word_1764": 1764, "dummy_word_1765": 1765, "dummy_word_1766": 1766, "dummy_word_1767": 1767, "dummy_word_1768": 1768, "dummy_word_1769": 1769, "dummy_word_1770": 1770, "dummy_word_1771": 1771, "dummy_word_1772": 1772, "dummy_word_1773": 1773, "dummy_word_1774": 1774, "dummy_word_1775": 1775, "dummy_word_1776": 1776, "dummy_word_1777": 1777, "dummy_word_1778": 1778, "dummy_word_1779": 1779, "dummy_word_1780": 1780, "dummy_word_1781": 1781, "dummy_word_1782": 1782, "dummy_word_1783": 1783, "dummy_word_1784": 1784, "dummy_word_1785": 1785, "dummy_word_1786": 1786, "dummy_word_1787": 1787, "dummy_word_1788": 1788, "dummy_word_1789": 1789, "dummy_word_1790": 1790, "dummy_word_1791": 1791, "dummy_word_1792": 1792, "dummy_word_1793": 1793, "dummy_word_1794": 1794, "dummy_word_1795": 1795, "dummy_word_1796": 1796, "dummy_word_1797": 1797, "dummy_word_1798": 1798, "dummy_word_1799": 1799, "dummy_word_1800": 1800, "dummy_word_1801": 1801, "dummy_word_1802": 1802, "dummy_word_1803": 1803, "dummy_word_1804": 1804, "dummy_word_1805": 1805, "dummy_word_1806": 1806, "dummy_word_1807": 1807, "dummy_word_1808": 1808, "dummy_word_1809": 1809, "dummy_word_1810": 1810, "dummy_word_1811": 1811, "dummy_word_1812": 1812, "dummy_word_1813": 1813, "dummy_word_1814": 1814, "dummy_word_1815": 1815, "dummy_word_1816": 1816, "dummy_word_1817": 1817, "dummy_word_1818": 1818, "dummy_word_1819": 1819, "dummy_word_1820": 1820, "dummy_word_1821": 1821, "dummy_word_1822": 1822, "dummy_word_1823": 1823, "dummy_word_1824": 1824, "dummy_word_1825": 1825, "dummy_word_1826": 1826, "dummy_word_1827": 1827, "dummy_word_1828": 1828, "dummy_word_1829": 1829, "dummy_word_1830": 1830, "dummy_word_1831": 1831, "dummy_word_1832": 1832, "dummy_word_1833": 1833, "dummy_word_1834": 1834, "dummy_word_1835": 1835, "dummy_word_1836": 1836, "dummy_word_1837": 1837, "dummy_word_1838": 1838, "dummy_word_1839": 1839, "dummy_word_1840": 1840, "dummy_word_1841": 1841, "dummy_word_1842": 1842, "dummy_word_1843": 1843, "dummy_word_1844": 1844, "dummy_word_1845": 1845, "dummy_word_1846": 1846, "dummy_word_1847": 1847, "dummy_word_1848": 1848, "dummy_word_1849": 1849, "dummy_word_1850": 1850, "dummy_word_1851": 1851, "dummy_word_1852": 1852, "dummy_word_1853": 1853, "dummy_word_1854": 1854, "dummy_word_1855": 1855, "dummy_word_1856": 1856, "dummy_word_1857": 1857, "dummy_word_1858": 1858, "dummy_word_1859": 1859, "dummy_word_1860": 1860, "dummy_word_1861": 1861, "dummy_word_1862": 1862, "dummy_word_1863": 1863, "dummy_word_1864": 1864, "dummy_word_1865": 1865, "dummy_word_1866": 1866, "dummy_word_1867": 1867, "dummy_word_1868": 1868, "dummy_word_1869": 1869, "dummy_word_1870": 1870, "dummy_word_1871": 1871, "dummy_word_1872": 1872, "dummy_word_1873": 1873, "dummy_word_1874": 1874, "dummy_word_1875": 1875, "dummy_word_1876": 1876, "dummy_word_1877": 1877, "dummy_word_1878": 1878, "dummy_word_1879": 1879, "dummy_word_1880": 1880, "dummy_word_1881": 1881, "dummy_word_1882": 1882, "dummy_word_1883": 1883, "dummy_word_1884": 1884, "dummy_word_1885": 1885, "dummy_word_1886": 1886, "dummy_word_1887": 1887, "dummy_word_1888": 1888, "dummy_word_1889": 1889, "dummy_word_1890": 1890, "dummy_word_1891": 1891, "dummy_word_1892": 1892, "dummy_word_1893": 1893, "dummy_word_1894": 1894, "dummy_word_1895": 1895, "dummy_word_1896": 1896, "dummy_word_1897": 1897, "dummy_word_1898": 1898, "dummy_word_1899": 1899, "dummy_word_1900": 1900, "dummy_word_1901": 1901, "dummy_word_1902": 1902, "dummy_word_1903": 1903, "dummy_word_1904": 1904, "dummy_word_1905": 1905, "dummy_word_1906": 1906, "dummy_word_1907": 1907, "dummy_word_1908": 1908, "dummy_word_1909": 1909, "dummy_word_1910": 1910, "dummy_word_1911": 1911, "dummy_word_1912": 1912, "dummy_word_1913": 1913, "dummy_word_1914": 1914, "dummy_word_1915": 1915, "dummy_word_1916": 1916, "dummy_word_1917": 1917, "dummy_word_1918": 1918, "dummy_word_1919": 1919, "dummy_word_1920": 1920, "dummy_word_1921": 1921, "dummy_word_1922": 1922, "dummy_word_1923": 1923, "dummy_word_1924": 1924, "dummy_word_1925": 1925, "dummy_word_1926": 1926, "dummy_word_1927": 1927, "dummy_word_1928": 1928, "dummy_word_1929": 1929, "dummy_word_1930": 1930, "dummy_word_1931": 1931, "dummy_word_1932": 1932, "dummy_word_1933": 1933, "dummy_word_1934": 1934, "dummy_word_1935": 1935, "dummy_word_1936": 1936, "dummy_word_1937": 1937, "dummy_word_1938": 1938, "dummy_word_1939": 1939, "dummy_word_1940": 1940, "dummy_word_1941": 1941, "dummy_word_1942": 1942, "dummy_word_1943": 1943, "dummy_word_1944": 1944, "dummy_word_1945": 1945, "dummy_word_1946": 1946, "dummy_word_1947": 1947, "dummy_word_1948": 1948, "dummy_word_1949": 1949, "dummy_word_1950": 1950, "dummy_word_1951": 1951, "dummy_word_1952": 1952, "dummy_word_1953": 1953, "dummy_word_1954": 1954, "dummy_word_1955": 1955, "dummy_word_1956": 1956, "dummy_word_1957": 1957, "dummy_word_1958": 1958, "dummy_word_1959": 1959, "dummy_word_1960": 1960, "dummy_word_1961": 1961, "dummy_word_1962": 1962, "dummy_word_1963": 1963, "dummy_word_1964": 1964, "dummy_word_1965": 1965, "dummy_word_1966": 1966, "dummy_word_1967": 1967, "dummy_word_1968": 1968, "dummy_word_1969": 1969, "dummy_word_1970": 1970, "dummy_word_1971": 1971, "dummy_word_1972": 1972, "dummy_word_1973": 1973, "dummy_word_1974": 1974, "dummy_word_1975": 1975, "dummy_word_1976": 1976, "dummy_word_1977": 1977, "dummy_word_1978": 1978, "dummy_word_1979": 1979, "dummy_word_1980": 1980, "dummy_word_1981": 1981, "dummy_word_1982": 1982, "dummy_word_1983": 1983, "dummy_word_1984": 1984, "dummy_word_1985": 1985, "dummy_word_1986": 1986, "dummy_word_1987": 1987, "dummy_word_1988": 1988, "dummy_word_1989": 1989, "dummy_word_1990": 1990, "dummy_word_1991": 1991, "dummy_word_1992": 1992, "dummy_word_1993": 1993, "dummy_word_1994": 1994, "dummy_word_1995": 1995, "dummy_word_1996": 1996, "dummy_word_1997": 1997, "dummy_word_1998": 1998, "dummy_word_1999": 1999, "dummy_word_2000": 2000, "dummy_word_2001": 2001, "dummy_word_2002": 2002, "dummy_word_2003": 2003, "dummy_word_2004": 2004, "dummy_word_2005": 2005, "dummy_word_2006": 2006, "dummy_word_2007": 2007, "dummy_word_2008": 2008, "dummy_word_2009": 2009, "dummy_word_2010": 2010, "dummy_word_2011": 2011, "dummy_word_2012": 2012, "dummy_word_2013": 2013, "dummy_word_2014": 2014, "dummy_word_2015": 2015, "dummy_word_2016": 2016, "dummy_word_2017": 2017, "dummy_word_2018": 2018, "dummy_word_2019": 2019, "dummy_word_2020": 2020, "dummy_word_2021": 2021, "dummy_word_2022": 2022, "dummy_word_2023": 2023, "dummy_word_2024": 2024, "dummy_word_2025": 2025, "dummy_word_2026": 2026, "dummy_word_2027": 2027, "dummy_word_2028": 2028, "dummy_word_2029": 2029, "dummy_word_2030": 2030, "dummy_word_2031": 2031, "dummy_word_2032": 2032, "dummy_word_2033": 2033, "dummy_word_2034": 2034, "dummy_word_2035": 2035, "dummy_word_2036": 2036, "dummy_word_2037": 2037, "dummy_word_2038": 2038, "dummy_word_2039": 2039, "dummy_word_2040": 2040, "dummy_word_2041": 2041, "dummy_word_2042": 2042, "dummy_word_2043": 2043, "dummy_word_2044": 2044, "dummy_word_2045": 2045, "dummy_word_2046": 2046, "dummy_word_2047": 2047, "dummy_word_2048": 2048, "dummy_word_2049": 2049, "dummy_word_2050": 2050, "dummy_word_2051": 2051, "dummy_word_2052": 2052, "dummy_word_2053": 2053, "dummy_word_2054": 2054, "dummy_word_2055": 2055, "dummy_word_2056": 2056, "dummy_word_2057": 2057, "dummy_word_2058": 2058, "dummy_word_2059": 2059, "dummy_word_2060": 2060, "dummy_word_2061": 2061, "dummy_word_2062": 2062, "dummy_word_2063": 2063, "dummy_word_2064": 2064, "dummy_word_2065": 2065, "dummy_word_2066": 2066, "dummy_word_2067": 2067, "dummy_word_2068": 2068, "dummy_word_2069": 2069, "dummy_word_2070": 2070, "dummy_word_2071": 2071, "dummy_word_2072": 2072, "dummy_word_2073": 2073, "dummy_word_2074": 2074, "dummy_word_2075": 2075, "dummy_word_2076": 2076, "dummy_word_2077": 2077, "dummy_word_2078": 2078, "dummy_word_2079": 2079, "dummy_word_2080": 2080, "dummy_word_2081": 2081, "dummy_word_2082": 2082, "dummy_word_2083": 2083, "dummy_word_2084": 2084, "dummy_word_2085": 2085, "dummy_word_2086": 2086, "dummy_word_2087": 2087, "dummy_word_2088": 2088, "dummy_word_2089": 2089, "dummy_word_2090": 2090, "dummy_word_2091": 2091, "dummy_word_2092": 2092, "dummy_word_2093": 2093, "dummy_word_2094": 2094, "dummy_word_2095": 2095, "dummy_word_2096": 2096, "dummy_word_2097": 2097, "dummy_word_2098": 2098, "dummy_word_2099": 2099, "dummy_word_2100": 2100, "dummy_word_2101": 2101, "dummy_word_2102": 2102, "dummy_word_2103": 2103, "dummy_word_2104": 2104, "dummy_word_2105": 2105, "dummy_word_2106": 2106, "dummy_word_2107": 2107, "dummy_word_2108": 2108, "dummy_word_2109": 2109, "dummy_word_2110": 2110, "dummy_word_2111": 2111, "dummy_word_2112": 2112, "dummy_word_2113": 2113, "dummy_word_2114": 2114, "dummy_word_2115": 2115, "dummy_word_2116": 2116, "dummy_word_2117": 2117, "dummy_word_2118": 2118, "dummy_word_2119": 2119, "dummy_word_2120": 2120, "dummy_word_2121": 2121, "dummy_word_2122": 2122, "dummy_word_2123": 2123, "dummy_word_2124": 2124, "dummy_word_2125": 2125, "dummy_word_2126": 2126, "dummy_word_2127": 2127, "dummy_word_2128": 2128, "dummy_word_2129": 2129, "dummy_word_2130": 2130, "dummy_word_2131": 2131, "dummy_word_2132": 2132, "dummy_word_2133": 2133, "dummy_word_2134": 2134, "dummy_word_2135": 2135, "dummy_word_2136": 2136, "dummy_word_2137": 2137, "dummy_word_2138": 2138, "dummy_word_2139": 2139, "dummy_word_2140": 2140, "dummy_word_2141": 2141, "dummy_word_2142": 2142, "dummy_word_2143": 2143, "dummy_word_2144": 2144, "dummy_word_2145": 2145, "dummy_word_2146": 2146, "dummy_word_2147": 2147, "dummy_word_2148": 2148, "dummy_word_2149": 2149, "dummy_word_2150": 2150, "dummy_word_2151": 2151, "dummy_word_2152": 2152, "dummy_word_2153": 2153, "dummy_word_2154": 2154, "dummy_word_2155": 2155, "dummy_word_2156": 2156, "dummy_word_2157": 2157, "dummy_word_2158": 2158, "dummy_word_2159": 2159, "dummy_word_2160": 2160, "dummy_word_2161": 2161, "dummy_word_2162": 2162, "dummy_word_2163": 2163, "dummy_word_2164": 2164, "dummy_word_2165": 2165, "dummy_word_2166": 2166, "dummy_word_2167": 2167, "dummy_word_2168": 2168, "dummy_word_2169": 2169, "dummy_word_2170": 2170, "dummy_word_2171": 2171, "dummy_word_2172": 2172, "dummy_word_2173": 2173, "dummy_word_2174": 2174, "dummy_word_2175": 2175, "dummy_word_2176": 2176, "dummy_word_2177": 2177, "dummy_word_2178": 2178, "dummy_word_2179": 2179, "dummy_word_2180": 2180, "dummy_word_2181": 2181, "dummy_word_2182": 2182, "dummy_word_2183": 2183, "dummy_word_2184": 2184, "dummy_word_2185": 2185, "dummy_word_2186": 2186, "dummy_word_2187": 2187, "dummy_word_2188": 2188, "dummy_word_2189": 2189, "dummy_word_2190": 2190, "dummy_word_2191": 2191, "dummy_word_2192": 2192, "dummy_word_2193": 2193, "dummy_word_2194": 2194, "dummy_word_2195": 2195, "dummy_word_2196": 2196, "dummy_word_2197": 2197, "dummy_word_2198": 2198, "dummy_word_2199": 2199, "dummy_word_2200": 2200, "dummy_word_2201": 2201, "dummy_word_2202": 2202, "dummy_word_2203": 2203, "dummy_word_2204": 2204, "dummy_word_2205": 2205, "dummy_word_2206": 2206, "dummy_word_2207": 2207, "dummy_word_2208": 2208, "dummy_word_2209": 2209, "dummy_word_2210": 2210, "dummy_word_2211": 2211, "dummy_word_2212": 2212, "dummy_word_2213": 2213, "dummy_word_2214": 2214, "dummy_word_2215": 2215, "dummy_word_2216": 2216, "dummy_word_2217": 2217, "dummy_word_2218": 2218, "dummy_word_2219": 2219, "dummy_word_2220": 2220, "dummy_word_2221": 2221, "dummy_word_2222": 2222, "dummy_word_2223": 2223, "dummy_word_2224": 2224, "dummy_word_2225": 2225, "dummy_word_2226": 2226, "dummy_word_2227": 2227, "dummy_word_2228": 2228, "dummy_word_2229": 2229, "dummy_word_2230": 2230, "dummy_word_2231": 2231, "dummy_word_2232": 2232, "dummy_word_2233": 2233, "dummy_word_2234": 2234, "dummy_word_2235": 2235, "dummy_word_2236": 2236, "dummy_word_2237": 2237, "dummy_word_2238": 2238, "dummy_word_2239": 2239, "dummy_word_2240": 2240, "dummy_word_2241": 2241, "dummy_word_2242": 2242, "dummy_word_2243": 2243, "dummy_word_2244": 2244, "dummy_word_2245": 2245, "dummy_word_2246": 2246, "dummy_word_2247": 2247, "dummy_word_2248": 2248, "dummy_word_2249": 2249, "dummy_word_2250": 2250, "dummy_word_2251": 2251, "dummy_word_2252": 2252, "dummy_word_2253": 2253, "dummy_word_2254": 2254, "dummy_word_2255": 2255, "dummy_word_2256": 2256, "dummy_word_2257": 2257, "dummy_word_2258": 2258, "dummy_word_2259": 2259, "dummy_word_2260": 2260, "dummy_word_2261": 2261, "dummy_word_2262": 2262, "dummy_word_2263": 2263, "dummy_word_2264": 2264, "dummy_word_2265": 2265, "dummy_word_2266": 2266, "dummy_word_2267": 2267, "dummy_word_2268": 2268, "dummy_word_2269": 2269, "dummy_word_2270": 2270, "dummy_word_2271": 2271, "dummy_word_2272": 2272, "dummy_word_2273": 2273, "dummy_word_2274": 2274, "dummy_word_2275": 2275, "dummy_word_2276": 2276, "dummy_word_2277": 2277, "dummy_word_2278": 2278, "dummy_word_2279": 2279, "dummy_word_2280": 2280, "dummy_word_2281": 2281, "dummy_word_2282": 2282, "dummy_word_2283": 2283, "dummy_word_2284": 2284, "dummy_word_2285": 2285, "dummy_word_2286": 2286, "dummy_word_2287": 2287, "dummy_word_2288": 2288, "dummy_word_2289": 2289, "dummy_word_2290": 2290, "dummy_word_2291": 2291, "dummy_word_2292": 2292, "dummy_word_2293": 2293, "dummy_word_2294": 2294, "dummy_word_2295": 2295, "dummy_word_2296": 2296, "dummy_word_2297": 2297, "dummy_word_2298": 2298, "dummy_word_2299": 2299, "dummy_word_2300": 2300, "dummy_word_2301": 2301, "dummy_word_2302": 2302, "dummy_word_2303": 2303, "dummy_word_2304": 2304, "dummy_word_2305": 2305, "dummy_word_2306": 2306, "dummy_word_2307": 2307, "dummy_word_2308": 2308, "dummy_word_2309": 2309, "dummy_word_2310": 2310, "dummy_word_2311": 2311, "dummy_word_2312": 2312, "dummy_word_2313": 2313, "dummy_word_2314": 2314, "dummy_word_2315": 2315, "dummy_word_2316": 2316, "dummy_word_2317": 2317, "dummy_word_2318": 2318, "dummy_word_2319": 2319, "dummy_word_2320": 2320, "dummy_word_2321": 2321, "dummy_word_2322": 2322, "dummy_word_2323": 2323, "dummy_word_2324": 2324, "dummy_word_2325": 2325, "dummy_word_2326": 2326, "dummy_word_2327": 2327, "dummy_word_2328": 2328, "dummy_word_2329": 2329, "dummy_word_2330": 2330, "dummy_word_2331": 2331, "dummy_word_2332": 2332, "dummy_word_2333": 2333, "dummy_word_2334": 2334, "dummy_word_2335": 2335, "dummy_word_2336": 2336, "dummy_word_2337": 2337, "dummy_word_2338": 2338, "dummy_word_2339": 2339, "dummy_word_2340": 2340, "dummy_word_2341": 2341, "dummy_word_2342": 2342, "dummy_word_2343": 2343, "dummy_word_2344": 2344, "dummy_word_2345": 2345, "dummy_word_2346": 2346, "dummy_word_2347": 2347, "dummy_word_2348": 2348, "dummy_word_2349": 2349, "dummy_word_2350": 2350, "dummy_word_2351": 2351, "dummy_word_2352": 2352, "dummy_word_2353": 2353, "dummy_word_2354": 2354, "dummy_word_2355": 2355, "dummy_word_2356": 2356, "dummy_word_2357": 2357, "dummy_word_2358": 2358, "dummy_word_2359": 2359, "dummy_word_2360": 2360, "dummy_word_2361": 2361, "dummy_word_2362": 2362, "dummy_word_2363": 2363, "dummy_word_2364": 2364, "dummy_word_2365": 2365, "dummy_word_2366": 2366, "dummy_word_2367": 2367, "dummy_word_2368": 2368, "dummy_word_2369": 2369, "dummy_word_2370": 2370, "dummy_word_2371": 2371, "dummy_word_2372": 2372, "dummy_word_2373": 2373, "dummy_word_2374": 2374, "dummy_word_2375": 2375, "dummy_word_2376": 2376, "dummy_word_2377": 2377, "dummy_word_2378": 2378, "dummy_word_2379": 2379, "dummy_word_2380": 2380, "dummy_word_2381": 2381, "dummy_word_2382": 2382, "dummy_word_2383": 2383, "dummy_word_2384": 2384, "dummy_word_2385": 2385, "dummy_word_2386": 2386, "dummy_word_2387": 2387, "dummy_word_2388": 2388, "dummy_word_2389": 2389, "dummy_word_2390": 2390, "dummy_word_2391": 2391, "dummy_word_2392": 2392, "dummy_word_2393": 2393, "dummy_word_2394": 2394, "dummy_word_2395": 2395, "dummy_word_2396": 2396, "dummy_word_2397": 2397, "dummy_word_2398": 2398, "dummy_word_2399": 2399, "dummy_word_2400": 2400, "dummy_word_2401": 2401, "dummy_word_2402": 2402, "dummy_word_2403": 2403, "dummy_word_2404": 2404, "dummy_word_2405": 2405, "dummy_word_2406": 2406, "dummy_word_2407": 2407, "dummy_word_2408": 2408, "dummy_word_2409": 2409, "dummy_word_2410": 2410, "dummy_word_2411": 2411, "dummy_word_2412": 2412, "dummy_word_2413": 2413, "dummy_word_2414": 2414, "dummy_word_2415": 2415, "dummy_word_2416": 2416, "dummy_word_2417": 2417, "dummy_word_2418": 2418, "dummy_word_2419": 2419, "dummy_word_2420": 2420, "dummy_word_2421": 2421, "dummy_word_2422": 2422, "dummy_word_2423": 2423, "dummy_word_2424": 2424, "dummy_word_2425": 2425, "dummy_word_2426": 2426, "dummy_word_2427": 2427, "dummy_word_2428": 2428, "dummy_word_2429": 2429, "dummy_word_2430": 2430, "dummy_word_2431": 2431, "dummy_word_2432": 2432, "dummy_word_2433": 2433, "dummy_word_2434": 2434, "dummy_word_2435": 2435, "dummy_word_2436": 2436, "dummy_word_2437": 2437, "dummy_word_2438": 2438, "dummy_word_2439": 2439, "dummy_word_2440": 2440, "dummy_word_2441": 2441, "dummy_word_2442": 2442, "dummy_word_2443": 2443, "dummy_word_2444": 2444, "dummy_word_2445": 2445, "dummy_word_2446": 2446, "dummy_word_2447": 2447, "dummy_word_2448": 2448, "dummy_word_2449": 2449, "dummy_word_2450": 2450, "dummy_word_2451": 2451, "dummy_word_2452": 2452, "dummy_word_2453": 2453, "dummy_word_2454": 2454, "dummy_word_2455": 2455, "dummy_word_2456": 2456, "dummy_word_2457": 2457, "dummy_word_2458": 2458, "dummy_word_2459": 2459, "dummy_word_2460": 2460, "dummy_word_2461": 2461, "dummy_word_2462": 2462, "dummy_word_2463": 2463, "dummy_word_2464": 2464, "dummy_word_2465": 2465, "dummy_word_2466": 2466, "dummy_word_2467": 2467, "dummy_word_2468": 2468, "dummy_word_2469": 2469, "dummy_word_2470": 2470, "dummy_word_2471": 2471, "dummy_word_2472": 2472, "dummy_word_2473": 2473, "dummy_word_2474": 2474, "dummy_word_2475": 2475, "dummy_word_2476": 2476, "dummy_word_2477": 2477, "dummy_word_2478": 2478, "dummy_word_2479": 2479, "dummy_word_2480": 2480, "dummy_word_2481": 2481, "dummy_word_2482": 2482, "dummy_word_2483": 2483, "dummy_word_2484": 2484, "dummy_word_2485": 2485, "dummy_word_2486": 2486, "dummy_word_2487": 2487, "dummy_word_2488": 2488, "dummy_word_2489": 2489, "dummy_word_2490": 2490, "dummy_word_2491": 2491, "dummy_word_2492": 2492, "dummy_word_2493": 2493, "dummy_word_2494": 2494, "dummy_word_2495": 2495, "dummy_word_2496": 2496, "dummy_word_2497": 2497, "dummy_word_2498": 2498, "dummy_word_2499": 2499, "dummy_word_2500": 2500, "dummy_word_2501": 2501, "dummy_word_2502": 2502, "dummy_word_2503": 2503, "dummy_word_2504": 2504, "dummy_word_2505": 2505, "dummy_word_2506": 2506, "dummy_word_2507": 2507, "dummy_word_2508": 2508, "dummy_word_2509": 2509, "dummy_word_2510": 2510, "dummy_word_2511": 2511, "dummy_word_2512": 2512, "dummy_word_2513": 2513, "dummy_word_2514": 2514, "dummy_word_2515": 2515, "dummy_word_2516": 2516, "dummy_word_2517": 2517, "dummy_word_2518": 2518, "dummy_word_2519": 2519, "dummy_word_2520": 2520, "dummy_word_2521": 2521, "dummy_word_2522": 2522, "dummy_word_2523": 2523, "dummy_word_2524": 2524, "dummy_word_2525": 2525, "dummy_word_2526": 2526, "dummy_word_2527": 2527, "dummy_word_2528": 2528, "dummy_word_2529": 2529, "dummy_word_2530": 2530, "dummy_word_2531": 2531, "dummy_word_2532": 2532, "dummy_word_2533": 2533, "dummy_word_2534": 2534, "dummy_word_2535": 2535, "dummy_word_2536": 2536, "dummy_word_2537": 2537, "dummy_word_2538": 2538, "dummy_word_2539": 2539, "dummy_word_2540": 2540, "dummy_word_2541": 2541, "dummy_word_2542": 2542, "dummy_word_2543": 2543, "dummy_word_2544": 2544, "dummy_word_2545": 2545, "dummy_word_2546": 2546, "dummy_word_2547": 2547, "dummy_word_2548": 2548, "dummy_word_2549": 2549, "dummy_word_2550": 2550, "dummy_word_2551": 2551, "dummy_word_2552": 2552, "dummy_word_2553": 2553, "dummy_word_2554": 2554, "dummy_word_2555": 2555, "dummy_word_2556": 2556, "dummy_word_2557": 2557, "dummy_word_2558": 2558, "dummy_word_2559": 2559, "dummy_word_2560": 2560, "dummy_word_2561": 2561, "dummy_word_2562": 2562, "dummy_word_2563": 2563, "dummy_word_2564": 2564, "dummy_word_2565": 2565, "dummy_word_2566": 2566, "dummy_word_2567": 2567, "dummy_word_2568": 2568, "dummy_word_2569": 2569, "dummy_word_2570": 2570, "dummy_word_2571": 2571, "dummy_word_2572": 2572, "dummy_word_2573": 2573, "dummy_word_2574": 2574, "dummy_word_2575": 2575, "dummy_word_2576": 2576, "dummy_word_2577": 2577, "dummy_word_2578": 2578, "dummy_word_2579": 2579, "dummy_word_2580": 2580, "dummy_word_2581": 2581, "dummy_word_2582": 2582, "dummy_word_2583": 2583, "dummy_word_2584": 2584, "dummy_word_2585": 2585, "dummy_word_2586": 2586, "dummy_word_2587": 2587, "dummy_word_2588": 2588, "dummy_word_2589": 2589, "dummy_word_2590": 2590, "dummy_word_2591": 2591, "dummy_word_2592": 2592, "dummy_word_2593": 2593, "dummy_word_2594": 2594, "dummy_word_2595": 2595, "dummy_word_2596": 2596, "dummy_word_2597": 2597, "dummy_word_2598": 2598, "dummy_word_2599": 2599, "dummy_word_2600": 2600, "dummy_word_2601": 2601, "dummy_word_2602": 2602, "dummy_word_2603": 2603, "dummy_word_2604": 2604, "dummy_word_2605": 2605, "dummy_word_2606": 2606, "dummy_word_2607": 2607, "dummy_word_2608": 2608, "dummy_word_2609": 2609, "dummy_word_2610": 2610, "dummy_word_2611": 2611, "dummy_word_2612": 2612, "dummy_word_2613": 2613, "dummy_word_2614": 2614, "dummy_word_2615": 2615, "dummy_word_2616": 2616, "dummy_word_2617": 2617, "dummy_word_2618": 2618, "dummy_word_2619": 2619, "dummy_word_2620": 2620, "dummy_word_2621": 2621, "dummy_word_2622": 2622, "dummy_word_2623": 2623, "dummy_word_2624": 2624, "dummy_word_2625": 2625, "dummy_word_2626": 2626, "dummy_word_2627": 2627, "dummy_word_2628": 2628, "dummy_word_2629": 2629, "dummy_word_2630": 2630, "dummy_word_2631": 2631, "dummy_word_2632": 2632, "dummy_word_2633": 2633, "dummy_word_2634": 2634, "dummy_word_2635": 2635, "dummy_word_2636": 2636, "dummy_word_2637": 2637, "dummy_word_2638": 2638, "dummy_word_2639": 2639, "dummy_word_2640": 2640, "dummy_word_2641": 2641, "dummy_word_2642": 2642, "dummy_word_2643": 2643, "dummy_word_2644": 2644, "dummy_word_2645": 2645, "dummy_word_2646": 2646, "dummy_word_2647": 2647, "dummy_word_2648": 2648, "dummy_word_2649": 2649, "dummy_word_2650": 2650, "dummy_word_2651": 2651, "dummy_word_2652": 2652, "dummy_word_2653": 2653, "dummy_word_2654": 2654, "dummy_word_2655": 2655, "dummy_word_2656": 2656, "dummy_word_2657": 2657, "dummy_word_2658": 2658, "dummy_word_2659": 2659, "dummy_word_2660": 2660, "dummy_word_2661": 2661, "dummy_word_2662": 2662, "dummy_word_2663": 2663, "dummy_word_2664": 2664, "dummy_word_2665": 2665, "dummy_word_2666": 2666, "dummy_word_2667": 2667, "dummy_word_2668": 2668, "dummy_word_2669": 2669, "dummy_word_2670": 2670, "dummy_word_2671": 2671, "dummy_word_2672": 2672, "dummy_word_2673": 2673, "dummy_word_2674": 2674, "dummy_word_2675": 2675, "dummy_word_2676": 2676, "dummy_word_2677": 2677, "dummy_word_2678": 2678, "dummy_word_2679": 2679, "dummy_word_2680": 2680, "dummy_word_2681": 2681, "dummy_word_2682": 2682, "dummy_word_2683": 2683, "dummy_word_2684": 2684, "dummy_word_2685": 2685, "dummy_word_2686": 2686, "dummy_word_2687": 2687, "dummy_word_2688": 2688, "dummy_word_2689": 2689, "dummy_word_2690": 2690, "dummy_word_2691": 2691, "dummy_word_2692": 2692, "dummy_word_2693": 2693, "dummy_word_2694": 2694, "dummy_word_2695": 2695, "dummy_word_2696": 2696, "dummy_word_2697": 2697, "dummy_word_2698": 2698, "dummy_word_2699": 2699, "dummy_word_2700": 2700, "dummy_word_2701": 2701, "dummy_word_2702": 2702, "dummy_word_2703": 2703, "dummy_word_2704": 2704, "dummy_word_2705": 2705, "dummy_word_2706": 2706, "dummy_word_2707": 2707, "dummy_word_2708": 2708, "dummy_word_2709": 2709, "dummy_word_2710": 2710, "dummy_word_2711": 2711, "dummy_word_2712": 2712, "dummy_word_2713": 2713, "dummy_word_2714": 2714, "dummy_word_2715": 2715, "dummy_word_2716": 2716, "dummy_word_2717": 2717, "dummy_word_2718": 2718, "dummy_word_2719": 2719, "dummy_word_2720": 2720, "dummy_word_2721": 2721, "dummy_word_2722": 2722, "dummy_word_2723": 2723, "dummy_word_2724": 2724, "dummy_word_2725": 2725, "dummy_word_2726": 2726, "dummy_word_2727": 2727, "dummy_word_2728": 2728, "dummy_word_2729": 2729, "dummy_word_2730": 2730, "dummy_word_2731": 2731, "dummy_word_2732": 2732, "dummy_word_2733": 2733, "dummy_word_2734": 2734, "dummy_word_2735": 2735, "dummy_word_2736": 2736, "dummy_word_2737": 2737, "dummy_word_2738": 2738, "dummy_word_2739": 2739, "dummy_word_2740": 2740, "dummy_word_2741": 2741, "dummy_word_2742": 2742, "dummy_word_2743": 2743, "dummy_word_2744": 2744, "dummy_word_2745": 2745, "dummy_word_2746": 2746, "dummy_word_2747": 2747, "dummy_word_2748": 2748, "dummy_word_2749": 2749, "dummy_word_2750": 2750, "dummy_word_2751": 2751, "dummy_word_2752": 2752, "dummy_word_2753": 2753, "dummy_word_2754": 2754, "dummy_word_2755": 2755, "dummy_word_2756": 2756, "dummy_word_2757": 2757, "dummy_word_2758": 2758, "dummy_word_2759": 2759, "dummy_word_2760": 2760, "dummy_word_2761": 2761, "dummy_word_2762": 2762, "dummy_word_2763": 2763, "dummy_word_2764": 2764, "dummy_word_2765": 2765, "dummy_word_2766": 2766, "dummy_word_2767": 2767, "dummy_word_2768": 2768, "dummy_word_2769": 2769, "dummy_word_2770": 2770, "dummy_word_2771": 2771, "dummy_word_2772": 2772, "dummy_word_2773": 2773, "dummy_word_2774": 2774, "dummy_word_2775": 2775, "dummy_word_2776": 2776, "dummy_word_2777": 2777, "dummy_word_2778": 2778, "dummy_word_2779": 2779, "dummy_word_2780": 2780, "dummy_word_2781": 2781, "dummy_word_2782": 2782, "dummy_word_2783": 2783, "dummy_word_2784": 2784, "dummy_word_2785": 2785, "dummy_word_2786": 2786, "dummy_word_2787": 2787, "dummy_word_2788": 2788, "dummy_word_2789": 2789, "dummy_word_2790": 2790, "dummy_word_2791": 2791, "dummy_word_2792": 2792, "dummy_word_2793": 2793, "dummy_word_2794": 2794, "dummy_word_2795": 2795, "dummy_word_2796": 2796, "dummy_word_2797": 2797, "dummy_word_2798": 2798, "dummy_word_2799": 2799, "dummy_word_2800": 2800, "dummy_word_2801": 2801, "dummy_word_2802": 2802, "dummy_word_2803": 2803, "dummy_word_2804": 2804, "dummy_word_2805": 2805, "dummy_word_2806": 2806, "dummy_word_2807": 2807, "dummy_word_2808": 2808, "dummy_word_2809": 2809, "dummy_word_2810": 2810, "dummy_word_2811": 2811, "dummy_word_2812": 2812, "dummy_word_2813": 2813, "dummy_word_2814": 2814, "dummy_word_2815": 2815, "dummy_word_2816": 2816, "dummy_word_2817": 2817, "dummy_word_2818": 2818, "dummy_word_2819": 2819, "dummy_word_2820": 2820, "dummy_word_2821": 2821, "dummy_word_2822": 2822, "dummy_word_2823": 2823, "dummy_word_2824": 2824, "dummy_word_2825": 2825, "dummy_word_2826": 2826, "dummy_word_2827": 2827, "dummy_word_2828": 2828, "dummy_word_2829": 2829, "dummy_word_2830": 2830, "dummy_word_2831": 2831, "dummy_word_2832": 2832, "dummy_word_2833": 2833, "dummy_word_2834": 2834, "dummy_word_2835": 2835, "dummy_word_2836": 2836, "dummy_word_2837": 2837, "dummy_word_2838": 2838, "dummy_word_2839": 2839, "dummy_word_2840": 2840, "dummy_word_2841": 2841, "dummy_word_2842": 2842, "dummy_word_2843": 2843, "dummy_word_2844": 2844, "dummy_word_2845": 2845, "dummy_word_2846": 2846, "dummy_word_2847": 2847, "dummy_word_2848": 2848, "dummy_word_2849": 2849, "dummy_word_2850": 2850, "dummy_word_2851": 2851, "dummy_word_2852": 2852, "dummy_word_2853": 2853, "dummy_word_2854": 2854, "dummy_word_2855": 2855, "dummy_word_2856": 2856, "dummy_word_2857": 2857, "dummy_word_2858": 2858, "dummy_word_2859": 2859, "dummy_word_2860": 2860, "dummy_word_2861": 2861, "dummy_word_2862": 2862, "dummy_word_2863": 2863, "dummy_word_2864": 2864, "dummy_word_2865": 2865, "dummy_word_2866": 2866, "dummy_word_2867": 2867, "dummy_word_2868": 2868, "dummy_word_2869": 2869, "dummy_word_2870": 2870, "dummy_word_2871": 2871, "dummy_word_2872": 2872, "dummy_word_2873": 2873, "dummy_word_2874": 2874, "dummy_word_2875": 2875, "dummy_word_2876": 2876, "dummy_word_2877": 2877, "dummy_word_2878": 2878, "dummy_word_2879": 2879, "dummy_word_2880": 2880, "dummy_word_2881": 2881, "dummy_word_2882": 2882, "dummy_word_2883": 2883, "dummy_word_2884": 2884, "dummy_word_2885": 2885, "dummy_word_2886": 2886, "dummy_word_2887": 2887, "dummy_word_2888": 2888, "dummy_word_2889": 2889, "dummy_word_2890": 2890, "dummy_word_2891": 2891, "dummy_word_2892": 2892, "dummy_word_2893": 2893, "dummy_word_2894": 2894, "dummy_word_2895": 2895, "dummy_word_2896": 2896, "dummy_word_2897": 2897, "dummy_word_2898": 2898, "dummy_word_2899": 2899, "dummy_word_2900": 2900, "dummy_word_2901": 2901, "dummy_word_2902": 2902, "dummy_word_2903": 2903, "dummy_word_2904": 2904, "dummy_word_2905": 2905, "dummy_word_2906": 2906, "dummy_word_2907": 2907, "dummy_word_2908": 2908, "dummy_word_2909": 2909, "dummy_word_2910": 2910, "dummy_word_2911": 2911, "dummy_word_2912": 2912, "dummy_word_2913": 2913, "dummy_word_2914": 2914, "dummy_word_2915": 2915, "dummy_word_2916": 2916, "dummy_word_2917": 2917, "dummy_word_2918": 2918, "dummy_word_2919": 2919, "dummy_word_2920": 2920, "dummy_word_2921": 2921, "dummy_word_2922": 2922, "dummy_word_2923": 2923, "dummy_word_2924": 2924, "dummy_word_2925": 2925, "dummy_word_2926": 2926, "dummy_word_2927": 2927, "dummy_word_2928": 2928, "dummy_word_2929": 2929, "dummy_word_2930": 2930, "dummy_word_2931": 2931, "dummy_word_2932": 2932, "dummy_word_2933": 2933, "dummy_word_2934": 2934, "dummy_word_2935": 2935, "dummy_word_2936": 2936, "dummy_word_2937": 2937, "dummy_word_2938": 2938, "dummy_word_2939": 2939, "dummy_word_2940": 2940, "dummy_word_2941": 2941, "dummy_word_2942": 2942, "dummy_word_2943": 2943, "dummy_word_2944": 2944, "dummy_word_2945": 2945, "dummy_word_2946": 2946, "dummy_word_2947": 2947, "dummy_word_2948": 2948, "dummy_word_2949": 2949, "dummy_word_2950": 2950, "dummy_word_2951": 2951, "dummy_word_2952": 2952, "dummy_word_2953": 2953, "dummy_word_2954": 2954, "dummy_word_2955": 2955, "dummy_word_2956": 2956, "dummy_word_2957": 2957, "dummy_word_2958": 2958, "dummy_word_2959": 2959, "dummy_word_2960": 2960, "dummy_word_2961": 2961, "dummy_word_2962": 2962, "dummy_word_2963": 2963, "dummy_word_2964": 2964, "dummy_word_2965": 2965, "dummy_word_2966": 2966, "dummy_word_2967": 2967, "dummy_word_2968": 2968, "dummy_word_2969": 2969, "dummy_word_2970": 2970, "dummy_word_2971": 2971, "dummy_word_2972": 2972, "dummy_word_2973": 2973, "dummy_word_2974": 2974, "dummy_word_2975": 2975, "dummy_word_2976": 2976, "dummy_word_2977": 2977, "dummy_word_2978": 2978, "dummy_word_2979": 2979, "dummy_word_2980": 2980, "dummy_word_2981": 2981, "dummy_word_2982": 2982, "dummy_word_2983": 2983, "dummy_word_2984": 2984, "dummy_word_2985": 2985, "dummy_word_2986": 2986, "dummy_word_2987": 2987, "dummy_word_2988": 2988, "dummy_word_2989": 2989, "dummy_word_2990": 2990, "dummy_word_2991": 2991, "dummy_word_2992": 2992, "dummy_word_2993": 2993, "dummy_word_2994": 2994, "dummy_word_2995": 2995, "dummy_word_2996": 2996, "dummy_word_2997": 2997, "dummy_word_2998": 2998, "dummy_word_2999": 2999, "dummy_word_3000": 3000, "dummy_word_3001": 3001, "dummy_word_3002": 3002, "dummy_word_3003": 3003, "dummy_word_3004": 3004, "dummy_word_3005": 3005, "dummy_word_3006": 3006, "dummy_word_3007": 3007, "dummy_word_3008": 3008, "dummy_word_3009": 3009, "dummy_word_3010": 3010, "dummy_word_3011": 3011, "dummy_word_3012": 3012, "dummy_word_3013": 3013, "dummy_word_3014": 3014, "dummy_word_3015": 3015, "dummy_word_3016": 3016, "dummy_word_3017": 3017, "dummy_word_3018": 3018, "dummy_word_3019": 3019, "dummy_word_3020": 3020, "dummy_word_3021": 3021, "dummy_word_3022": 3022, "dummy_word_3023": 3023, "dummy_word_3024": 3024, "dummy_word_3025": 3025, "dummy_word_3026": 3026, "dummy_word_3027": 3027, "dummy_word_3028": 3028, "dummy_word_3029": 3029, "dummy_word_3030": 3030, "dummy_word_3031": 3031, "dummy_word_3032": 3032, "dummy_word_3033": 3033, "dummy_word_3034": 3034, "dummy_word_3035": 3035, "dummy_word_3036": 3036, "dummy_word_3037": 3037, "dummy_word_3038": 3038, "dummy_word_3039": 3039, "dummy_word_3040": 3040, "dummy_word_3041": 3041, "dummy_word_3042": 3042, "dummy_word_3043": 3043, "dummy_word_3044": 3044, "dummy_word_3045": 3045, "dummy_word_3046": 3046, "dummy_word_3047": 3047, "dummy_word_3048": 3048, "dummy_word_3049": 3049, "dummy_word_3050": 3050, "dummy_word_3051": 3051, "dummy_word_3052": 3052, "dummy_word_3053": 3053, "dummy_word_3054": 3054, "dummy_word_3055": 3055, "dummy_word_3056": 3056, "dummy_word_3057": 3057, "dummy_word_3058": 3058, "dummy_word_3059": 3059, "dummy_word_3060": 3060, "dummy_word_3061": 3061, "dummy_word_3062": 3062, "dummy_word_3063": 3063, "dummy_word_3064": 3064, "dummy_word_3065": 3065, "dummy_word_3066": 3066, "dummy_word_3067": 3067, "dummy_word_3068": 3068, "dummy_word_3069": 3069, "dummy_word_3070": 3070, "dummy_word_3071": 3071, "dummy_word_3072": 3072, "dummy_word_3073": 3073, "dummy_word_3074": 3074, "dummy_word_3075": 3075, "dummy_word_3076": 3076, "dummy_word_3077": 3077, "dummy_word_3078": 3078, "dummy_word_3079": 3079, "dummy_word_3080": 3080, "dummy_word_3081": 3081, "dummy_word_3082": 3082, "dummy_word_3083": 3083, "dummy_word_3084": 3084, "dummy_word_3085": 3085, "dummy_word_3086": 3086, "dummy_word_3087": 3087, "dummy_word_3088": 3088, "dummy_word_3089": 3089, "dummy_word_3090": 3090, "dummy_word_3091": 3091, "dummy_word_3092": 3092, "dummy_word_3093": 3093, "dummy_word_3094": 3094, "dummy_word_3095": 3095, "dummy_word_3096": 3096, "dummy_word_3097": 3097, "dummy_word_3098": 3098, "dummy_word_3099": 3099, "dummy_word_3100": 3100, "dummy_word_3101": 3101, "dummy_word_3102": 3102, "dummy_word_3103": 3103, "dummy_word_3104": 3104, "dummy_word_3105": 3105, "dummy_word_3106": 3106, "dummy_word_3107": 3107, "dummy_word_3108": 3108, "dummy_word_3109": 3109, "dummy_word_3110": 3110, "dummy_word_3111": 3111, "dummy_word_3112": 3112, "dummy_word_3113": 3113, "dummy_word_3114": 3114, "dummy_word_3115": 3115, "dummy_word_3116": 3116, "dummy_word_3117": 3117, "dummy_word_3118": 3118, "dummy_word_3119": 3119, "dummy_word_3120": 3120, "dummy_word_3121": 3121, "dummy_word_3122": 3122, "dummy_word_3123": 3123, "dummy_word_3124": 3124, "dummy_word_3125": 3125, "dummy_word_3126": 3126, "dummy_word_3127": 3127, "dummy_word_3128": 3128, "dummy_word_3129": 3129, "dummy_word_3130": 3130, "dummy_word_3131": 3131, "dummy_word_3132": 3132, "dummy_word_3133": 3133, "dummy_word_3134": 3134, "dummy_word_3135": 3135, "dummy_word_3136": 3136, "dummy_word_3137": 3137, "dummy_word_3138": 3138, "dummy_word_3139": 3139, "dummy_word_3140": 3140, "dummy_word_3141": 3141, "dummy_word_3142": 3142, "dummy_word_3143": 3143, "dummy_word_3144": 3144, "dummy_word_3145": 3145, "dummy_word_3146": 3146, "dummy_word_3147": 3147, "dummy_word_3148": 3148, "dummy_word_3149": 3149, "dummy_word_3150": 3150, "dummy_word_3151": 3151, "dummy_word_3152": 3152, "dummy_word_3153": 3153, "dummy_word_3154": 3154, "dummy_word_3155": 3155, "dummy_word_3156": 3156, "dummy_word_3157": 3157, "dummy_word_3158": 3158, "dummy_word_3159": 3159, "dummy_word_3160": 3160, "dummy_word_3161": 3161, "dummy_word_3162": 3162, "dummy_word_3163": 3163, "dummy_word_3164": 3164, "dummy_word_3165": 3165, "dummy_word_3166": 3166, "dummy_word_3167": 3167, "dummy_word_3168": 3168, "dummy_word_3169": 3169, "dummy_word_3170": 3170, "dummy_word_3171": 3171, "dummy_word_3172": 3172, "dummy_word_3173": 3173, "dummy_word_3174": 3174, "dummy_word_3175": 3175, "dummy_word_3176": 3176, "dummy_word_3177": 3177, "dummy_word_3178": 3178, "dummy_word_3179": 3179, "dummy_word_3180": 3180, "dummy_word_3181": 3181, "dummy_word_3182": 3182, "dummy_word_3183": 3183, "dummy_word_3184": 3184, "dummy_word_3185": 3185, "dummy_word_3186": 3186, "dummy_word_3187": 3187, "dummy_word_3188": 3188, "dummy_word_3189": 3189, "dummy_word_3190": 3190, "dummy_word_3191": 3191, "dummy_word_3192": 3192, "dummy_word_3193": 3193, "dummy_word_3194": 3194, "dummy_word_3195": 3195, "dummy_word_3196": 3196, "dummy_word_3197": 3197, "dummy_word_3198": 3198, "dummy_word_3199": 3199, "dummy_word_3200": 3200, "dummy_word_3201": 3201, "dummy_word_3202": 3202, "dummy_word_3203": 3203, "dummy_word_3204": 3204, "dummy_word_3205": 3205, "dummy_word_3206": 3206, "dummy_word_3207": 3207, "dummy_word_3208": 3208, "dummy_word_3209": 3209, "dummy_word_3210": 3210, "dummy_word_3211": 3211, "dummy_word_3212": 3212, "dummy_word_3213": 3213, "dummy_word_3214": 3214, "dummy_word_3215": 3215, "dummy_word_3216": 3216, "dummy_word_3217": 3217, "dummy_word_3218": 3218, "dummy_word_3219": 3219, "dummy_word_3220": 3220, "dummy_word_3221": 3221, "dummy_word_3222": 3222, "dummy_word_3223": 3223, "dummy_word_3224": 3224, "dummy_word_3225": 3225, "dummy_word_3226": 3226, "dummy_word_3227": 3227, "dummy_word_3228": 3228, "dummy_word_3229": 3229, "dummy_word_3230": 3230, "dummy_word_3231": 3231, "dummy_word_3232": 3232, "dummy_word_3233": 3233, "dummy_word_3234": 3234, "dummy_word_3235": 3235, "dummy_word_3236": 3236, "dummy_word_3237": 3237, "dummy_word_3238": 3238, "dummy_word_3239": 3239, "dummy_word_3240": 3240, "dummy_word_3241": 3241, "dummy_word_3242": 3242, "dummy_word_3243": 3243, "dummy_word_3244": 3244, "dummy_word_3245": 3245, "dummy_word_3246": 3246, "dummy_word_3247": 3247, "dummy_word_3248": 3248, "dummy_word_3249": 3249, "dummy_word_3250": 3250, "dummy_word_3251": 3251, "dummy_word_3252": 3252, "dummy_word_3253": 3253, "dummy_word_3254": 3254, "dummy_word_3255": 3255, "dummy_word_3256": 3256, "dummy_word_3257": 3257, "dummy_word_3258": 3258, "dummy_word_3259": 3259, "dummy_word_3260": 3260, "dummy_word_3261": 3261, "dummy_word_3262": 3262, "dummy_word_3263": 3263, "dummy_word_3264": 3264, "dummy_word_3265": 3265, "dummy_word_3266": 3266, "dummy_word_3267": 3267, "dummy_word_3268": 3268, "dummy_word_3269": 3269, "dummy_word_3270": 3270, "dummy_word_3271": 3271, "dummy_word_3272": 3272, "dummy_word_3273": 3273, "dummy_word_3274": 3274, "dummy_word_3275": 3275, "dummy_word_3276": 3276, "dummy_word_3277": 3277, "dummy_word_3278": 3278, "dummy_word_3279": 3279, "dummy_word_3280": 3280, "dummy_word_3281": 3281, "dummy_word_3282": 3282, "dummy_word_3283": 3283, "dummy_word_3284": 3284, "dummy_word_3285": 3285, "dummy_word_3286": 3286, "dummy_word_3287": 3287, "dummy_word_3288": 3288, "dummy_word_3289": 3289, "dummy_word_3290": 3290, "dummy_word_3291": 3291, "dummy_word_3292": 3292, "dummy_word_3293": 3293, "dummy_word_3294": 3294, "dummy_word_3295": 3295, "dummy_word_3296": 3296, "dummy_word_3297": 3297, "dummy_word_3298": 3298, "dummy_word_3299": 3299, "dummy_word_3300": 3300, "dummy_word_3301": 3301, "dummy_word_3302": 3302, "dummy_word_3303": 3303, "dummy_word_3304": 3304, "dummy_word_3305": 3305, "dummy_word_3306": 3306, "dummy_word_3307": 3307, "dummy_word_3308": 3308, "dummy_word_3309": 3309, "dummy_word_3310": 3310, "dummy_word_3311": 3311, "dummy_word_3312": 3312, "dummy_word_3313": 3313, "dummy_word_3314": 3314, "dummy_word_3315": 3315, "dummy_word_3316": 3316, "dummy_word_3317": 3317, "dummy_word_3318": 3318, "dummy_word_3319": 3319, "dummy_word_3320": 3320, "dummy_word_3321": 3321, "dummy_word_3322": 3322, "dummy_word_3323": 3323, "dummy_word_3324": 3324, "dummy_word_3325": 3325, "dummy_word_3326": 3326, "dummy_word_3327": 3327, "dummy_word_3328": 3328, "dummy_word_3329": 3329, "dummy_word_3330": 3330, "dummy_word_3331": 3331, "dummy_word_3332": 3332, "dummy_word_3333": 3333, "dummy_word_3334": 3334, "dummy_word_3335": 3335, "dummy_word_3336": 3336, "dummy_word_3337": 3337, "dummy_word_3338": 3338, "dummy_word_3339": 3339, "dummy_word_3340": 3340, "dummy_word_3341": 3341, "dummy_word_3342": 3342, "dummy_word_3343": 3343, "dummy_word_3344": 3344, "dummy_word_3345": 3345, "dummy_word_3346": 3346, "dummy_word_3347": 3347, "dummy_word_3348": 3348, "dummy_word_3349": 3349, "dummy_word_3350": 3350, "dummy_word_3351": 3351, "dummy_word_3352": 3352, "dummy_word_3353": 3353, "dummy_word_3354": 3354, "dummy_word_3355": 3355, "dummy_word_3356": 3356, "dummy_word_3357": 3357, "dummy_word_3358": 3358, "dummy_word_3359": 3359, "dummy_word_3360": 3360, "dummy_word_3361": 3361, "dummy_word_3362": 3362, "dummy_word_3363": 3363, "dummy_word_3364": 3364, "dummy_word_3365": 3365, "dummy_word_3366": 3366, "dummy_word_3367": 3367, "dummy_word_3368": 3368, "dummy_word_3369": 3369, "dummy_word_3370": 3370, "dummy_word_3371": 3371, "dummy_word_3372": 3372, "dummy_word_3373": 3373, "dummy_word_3374": 3374, "dummy_word_3375": 3375, "dummy_word_3376": 3376, "dummy_word_3377": 3377, "dummy_word_3378": 3378, "dummy_word_3379": 3379, "dummy_word_3380": 3380, "dummy_word_3381": 3381, "dummy_word_3382": 3382, "dummy_word_3383": 3383, "dummy_word_3384": 3384, "dummy_word_3385": 3385, "dummy_word_3386": 3386, "dummy_word_3387": 3387, "dummy_word_3388": 3388, "dummy_word_3389": 3389, "dummy_word_3390": 3390, "dummy_word_3391": 3391, "dummy_word_3392": 3392, "dummy_word_3393": 3393, "dummy_word_3394": 3394, "dummy_word_3395": 3395, "dummy_word_3396": 3396, "dummy_word_3397": 3397, "dummy_word_3398": 3398, "dummy_word_3399": 3399, "dummy_word_3400": 3400, "dummy_word_3401": 3401, "dummy_word_3402": 3402, "dummy_word_3403": 3403, "dummy_word_3404": 3404, "dummy_word_3405": 3405, "dummy_word_3406": 3406, "dummy_word_3407": 3407, "dummy_word_3408": 3408, "dummy_word_3409": 3409, "dummy_word_3410": 3410, "dummy_word_3411": 3411, "dummy_word_3412": 3412, "dummy_word_3413": 3413, "dummy_word_3414": 3414, "dummy_word_3415": 3415, "dummy_word_3416": 3416, "dummy_word_3417": 3417, "dummy_word_3418": 3418, "dummy_word_3419": 3419, "dummy_word_3420": 3420, "dummy_word_3421": 3421, "dummy_word_3422": 3422, "dummy_word_3423": 3423, "dummy_word_3424": 3424, "dummy_word_3425": 3425, "dummy_word_3426": 3426, "dummy_word_3427": 3427, "dummy_word_3428": 3428, "dummy_word_3429": 3429, "dummy_word_3430": 3430, "dummy_word_3431": 3431, "dummy_word_3432": 3432, "dummy_word_3433": 3433, "dummy_word_3434": 3434, "dummy_word_3435": 3435, "dummy_word_3436": 3436, "dummy_word_3437": 3437, "dummy_word_3438": 3438, "dummy_word_3439": 3439, "dummy_word_3440": 3440, "dummy_word_3441": 3441, "dummy_word_3442": 3442, "dummy_word_3443": 3443, "dummy_word_3444": 3444, "dummy_word_3445": 3445, "dummy_word_3446": 3446, "dummy_word_3447": 3447, "dummy_word_3448": 3448, "dummy_word_3449": 3449, "dummy_word_3450": 3450, "dummy_word_3451": 3451, "dummy_word_3452": 3452, "dummy_word_3453": 3453, "dummy_word_3454": 3454, "dummy_word_3455": 3455, "dummy_word_3456": 3456, "dummy_word_3457": 3457, "dummy_word_3458": 3458, "dummy_word_3459": 3459, "dummy_word_3460": 3460, "dummy_word_3461": 3461, "dummy_word_3462": 3462, "dummy_word_3463": 3463, "dummy_word_3464": 3464, "dummy_word_3465": 3465, "dummy_word_3466": 3466, "dummy_word_3467": 3467, "dummy_word_3468": 3468, "dummy_word_3469": 3469, "dummy_word_3470": 3470, "dummy_word_3471": 3471, "dummy_word_3472": 3472, "dummy_word_3473": 3473, "dummy_word_3474": 3474, "dummy_word_3475": 3475, "dummy_word_3476": 3476, "dummy_word_3477": 3477, "dummy_word_3478": 3478, "dummy_word_3479": 3479, "dummy_word_3480": 3480, "dummy_word_3481": 3481, "dummy_word_3482": 3482, "dummy_word_3483": 3483, "dummy_word_3484": 3484, "dummy_word_3485": 3485, "dummy_word_3486": 3486, "dummy_word_3487": 3487, "dummy_word_3488": 3488, "dummy_word_3489": 3489, "dummy_word_3490": 3490, "dummy_word_3491": 3491, "dummy_word_3492": 3492, "dummy_word_3493": 3493, "dummy_word_3494": 3494, "dummy_word_3495": 3495, "dummy_word_3496": 3496, "dummy_word_3497": 3497, "dummy_word_3498": 3498, "dummy_word_3499": 3499, "dummy_word_3500": 3500, "dummy_word_3501": 3501, "dummy_word_3502": 3502, "dummy_word_3503": 3503, "dummy_word_3504": 3504, "dummy_word_3505": 3505, "dummy_word_3506": 3506, "dummy_word_3507": 3507, "dummy_word_3508": 3508, "dummy_word_3509": 3509, "dummy_word_3510": 3510, "dummy_word_3511": 3511, "dummy_word_3512": 3512, "dummy_word_3513": 3513, "dummy_word_3514": 3514, "dummy_word_3515": 3515, "dummy_word_3516": 3516, "dummy_word_3517": 3517, "dummy_word_3518": 3518, "dummy_word_3519": 3519, "dummy_word_3520": 3520, "dummy_word_3521": 3521, "dummy_word_3522": 3522, "dummy_word_3523": 3523, "dummy_word_3524": 3524, "dummy_word_3525": 3525, "dummy_word_3526": 3526, "dummy_word_3527": 3527, "dummy_word_3528": 3528, "dummy_word_3529": 3529, "dummy_word_3530": 3530, "dummy_word_3531": 3531, "dummy_word_3532": 3532, "dummy_word_3533": 3533, "dummy_word_3534": 3534, "dummy_word_3535": 3535, "dummy_word_3536": 3536, "dummy_word_3537": 3537, "dummy_word_3538": 3538, "dummy_word_3539": 3539, "dummy_word_3540": 3540, "dummy_word_3541": 3541, "dummy_word_3542": 3542, "dummy_word_3543": 3543, "dummy_word_3544": 3544, "dummy_word_3545": 3545, "dummy_word_3546": 3546, "dummy_word_3547": 3547, "dummy_word_3548": 3548, "dummy_word_3549": 3549, "dummy_word_3550": 3550, "dummy_word_3551": 3551, "dummy_word_3552": 3552, "dummy_word_3553": 3553, "dummy_word_3554": 3554, "dummy_word_3555": 3555, "dummy_word_3556": 3556, "dummy_word_3557": 3557, "dummy_word_3558": 3558, "dummy_word_3559": 3559, "dummy_word_3560": 3560, "dummy_word_3561": 3561, "dummy_word_3562": 3562, "dummy_word_3563": 3563, "dummy_word_3564": 3564, "dummy_word_3565": 3565, "dummy_word_3566": 3566, "dummy_word_3567": 3567, "dummy_word_3568": 3568, "dummy_word_3569": 3569, "dummy_word_3570": 3570, "dummy_word_3571": 3571, "dummy_word_3572": 3572, "dummy_word_3573": 3573, "dummy_word_3574": 3574, "dummy_word_3575": 3575, "dummy_word_3576": 3576, "dummy_word_3577": 3577, "dummy_word_3578": 3578, "dummy_word_3579": 3579, "dummy_word_3580": 3580, "dummy_word_3581": 3581, "dummy_word_3582": 3582, "dummy_word_3583": 3583, "dummy_word_3584": 3584, "dummy_word_3585": 3585, "dummy_word_3586": 3586, "dummy_word_3587": 3587, "dummy_word_3588": 3588, "dummy_word_3589": 3589, "dummy_word_3590": 3590, "dummy_word_3591": 3591, "dummy_word_3592": 3592, "dummy_word_3593": 3593, "dummy_word_3594": 3594, "dummy_word_3595": 3595, "dummy_word_3596": 3596, "dummy_word_3597": 3597, "dummy_word_3598": 3598, "dummy_word_3599": 3599, "dummy_word_3600": 3600, "dummy_word_3601": 3601, "dummy_word_3602": 3602, "dummy_word_3603": 3603, "dummy_word_3604": 3604, "dummy_word_3605": 3605, "dummy_word_3606": 3606, "dummy_word_3607": 3607, "dummy_word_3608": 3608, "dummy_word_3609": 3609, "dummy_word_3610": 3610, "dummy_word_3611": 3611, "dummy_word_3612": 3612, "dummy_word_3613": 3613, "dummy_word_3614": 3614, "dummy_word_3615": 3615, "dummy_word_3616": 3616, "dummy_word_3617": 3617, "dummy_word_3618": 3618, "dummy_word_3619": 3619, "dummy_word_3620": 3620, "dummy_word_3621": 3621, "dummy_word_3622": 3622, "dummy_word_3623": 3623, "dummy_word_3624": 3624, "dummy_word_3625": 3625, "dummy_word_3626": 3626, "dummy_word_3627": 3627, "dummy_word_3628": 3628, "dummy_word_3629": 3629, "dummy_word_3630": 3630, "dummy_word_3631": 3631, "dummy_word_3632": 3632, "dummy_word_3633": 3633, "dummy_word_3634": 3634, "dummy_word_3635": 3635, "dummy_word_3636": 3636, "dummy_word_3637": 3637, "dummy_word_3638": 3638, "dummy_word_3639": 3639, "dummy_word_3640": 3640, "dummy_word_3641": 3641, "dummy_word_3642": 3642, "dummy_word_3643": 3643, "dummy_word_3644": 3644, "dummy_word_3645": 3645, "dummy_word_3646": 3646, "dummy_word_3647": 3647, "dummy_word_3648": 3648, "dummy_word_3649": 3649, "dummy_word_3650": 3650, "dummy_word_3651": 3651, "dummy_word_3652": 3652, "dummy_word_3653": 3653, "dummy_word_3654": 3654, "dummy_word_3655": 3655, "dummy_word_3656": 3656, "dummy_word_3657": 3657, "dummy_word_3658": 3658, "dummy_word_3659": 3659, "dummy_word_3660": 3660, "dummy_word_3661": 3661, "dummy_word_3662": 3662, "dummy_word_3663": 3663, "dummy_word_3664": 3664, "dummy_word_3665": 3665, "dummy_word_3666": 3666, "dummy_word_3667": 3667, "dummy_word_3668": 3668, "dummy_word_3669": 3669, "dummy_word_3670": 3670, "dummy_word_3671": 3671, "dummy_word_3672": 3672, "dummy_word_3673": 3673, "dummy_word_3674": 3674, "dummy_word_3675": 3675, "dummy_word_3676": 3676, "dummy_word_3677": 3677, "dummy_word_3678": 3678, "dummy_word_3679": 3679, "dummy_word_3680": 3680, "dummy_word_3681": 3681, "dummy_word_3682": 3682, "dummy_word_3683": 3683, "dummy_word_3684": 3684, "dummy_word_3685": 3685, "dummy_word_3686": 3686, "dummy_word_3687": 3687, "dummy_word_3688": 3688, "dummy_word_3689": 3689, "dummy_word_3690": 3690, "dummy_word_3691": 3691, "dummy_word_3692": 3692, "dummy_word_3693": 3693, "dummy_word_3694": 3694, "dummy_word_3695": 3695, "dummy_word_3696": 3696, "dummy_word_3697": 3697, "dummy_word_3698": 3698, "dummy_word_3699": 3699, "dummy_word_3700": 3700, "dummy_word_3701": 3701, "dummy_word_3702": 3702, "dummy_word_3703": 3703, "dummy_word_3704": 3704, "dummy_word_3705": 3705, "dummy_word_3706": 3706, "dummy_word_3707": 3707, "dummy_word_3708": 3708, "dummy_word_3709": 3709, "dummy_word_3710": 3710, "dummy_word_3711": 3711, "dummy_word_3712": 3712, "dummy_word_3713": 3713, "dummy_word_3714": 3714, "dummy_word_3715": 3715, "dummy_word_3716": 3716, "dummy_word_3717": 3717, "dummy_word_3718": 3718, "dummy_word_3719": 3719, "dummy_word_3720": 3720, "dummy_word_3721": 3721, "dummy_word_3722": 3722, "dummy_word_3723": 3723, "dummy_word_3724": 3724, "dummy_word_3725": 3725, "dummy_word_3726": 3726, "dummy_word_3727": 3727, "dummy_word_3728": 3728, "dummy_word_3729": 3729, "dummy_word_3730": 3730, "dummy_word_3731": 3731, "dummy_word_3732": 3732, "dummy_word_3733": 3733, "dummy_word_3734": 3734, "dummy_word_3735": 3735, "dummy_word_3736": 3736, "dummy_word_3737": 3737, "dummy_word_3738": 3738, "dummy_word_3739": 3739, "dummy_word_3740": 3740, "dummy_word_3741": 3741, "dummy_word_3742": 3742, "dummy_word_3743": 3743, "dummy_word_3744": 3744, "dummy_word_3745": 3745, "dummy_word_3746": 3746, "dummy_word_3747": 3747, "dummy_word_3748": 3748, "dummy_word_3749": 3749, "dummy_word_3750": 3750, "dummy_word_3751": 3751, "dummy_word_3752": 3752, "dummy_word_3753": 3753, "dummy_word_3754": 3754, "dummy_word_3755": 3755, "dummy_word_3756": 3756, "dummy_word_3757": 3757, "dummy_word_3758": 3758, "dummy_word_3759": 3759, "dummy_word_3760": 3760, "dummy_word_3761": 3761, "dummy_word_3762": 3762, "dummy_word_3763": 3763, "dummy_word_3764": 3764, "dummy_word_3765": 3765, "dummy_word_3766": 3766, "dummy_word_3767": 3767, "dummy_word_3768": 3768, "dummy_word_3769": 3769, "dummy_word_3770": 3770, "dummy_word_3771": 3771, "dummy_word_3772": 3772, "dummy_word_3773": 3773, "dummy_word_3774": 3774, "dummy_word_3775": 3775, "dummy_word_3776": 3776, "dummy_word_3777": 3777, "dummy_word_3778": 3778, "dummy_word_3779": 3779, "dummy_word_3780": 3780, "dummy_word_3781": 3781, "dummy_word_3782": 3782, "dummy_word_3783": 3783, "dummy_word_3784": 3784, "dummy_word_3785": 3785, "dummy_word_3786": 3786, "dummy_word_3787": 3787, "dummy_word_3788": 3788, "dummy_word_3789": 3789, "dummy_word_3790": 3790, "dummy_word_3791": 3791, "dummy_word_3792": 3792, "dummy_word_3793": 3793, "dummy_word_3794": 3794, "dummy_word_3795": 3795, "dummy_word_3796": 3796, "dummy_word_3797": 3797, "dummy_word_3798": 3798, "dummy_word_3799": 3799, "dummy_word_3800": 3800, "dummy_word_3801": 3801, "dummy_word_3802": 3802, "dummy_word_3803": 3803, "dummy_word_3804": 3804, "dummy_word_3805": 3805, "dummy_word_3806": 3806, "dummy_word_3807": 3807, "dummy_word_3808": 3808, "dummy_word_3809": 3809, "dummy_word_3810": 3810, "dummy_word_3811": 3811, "dummy_word_3812": 3812, "dummy_word_3813": 3813, "dummy_word_3814": 3814, "dummy_word_3815": 3815, "dummy_word_3816": 3816, "dummy_word_3817": 3817, "dummy_word_3818": 3818, "dummy_word_3819": 3819, "dummy_word_3820": 3820, "dummy_word_3821": 3821, "dummy_word_3822": 3822, "dummy_word_3823": 3823, "dummy_word_3824": 3824, "dummy_word_3825": 3825, "dummy_word_3826": 3826, "dummy_word_3827": 3827, "dummy_word_3828": 3828, "dummy_word_3829": 3829, "dummy_word_3830": 3830, "dummy_word_3831": 3831, "dummy_word_3832": 3832, "dummy_word_3833": 3833, "dummy_word_3834": 3834, "dummy_word_3835": 3835, "dummy_word_3836": 3836, "dummy_word_3837": 3837, "dummy_word_3838": 3838, "dummy_word_3839": 3839, "dummy_word_3840": 3840, "dummy_word_3841": 3841, "dummy_word_3842": 3842, "dummy_word_3843": 3843, "dummy_word_3844": 3844, "dummy_word_3845": 3845, "dummy_word_3846": 3846, "dummy_word_3847": 3847, "dummy_word_3848": 3848, "dummy_word_3849": 3849, "dummy_word_3850": 3850, "dummy_word_3851": 3851, "dummy_word_3852": 3852, "dummy_word_3853": 3853, "dummy_word_3854": 3854, "dummy_word_3855": 3855, "dummy_word_3856": 3856, "dummy_word_3857": 3857, "dummy_word_3858": 3858, "dummy_word_3859": 3859, "dummy_word_3860": 3860, "dummy_word_3861": 3861, "dummy_word_3862": 3862, "dummy_word_3863": 3863, "dummy_word_3864": 3864, "dummy_word_3865": 3865, "dummy_word_3866": 3866, "dummy_word_3867": 3867, "dummy_word_3868": 3868, "dummy_word_3869": 3869, "dummy_word_3870": 3870, "dummy_word_3871": 3871, "dummy_word_3872": 3872, "dummy_word_3873": 3873, "dummy_word_3874": 3874, "dummy_word_3875": 3875, "dummy_word_3876": 3876, "dummy_word_3877": 3877, "dummy_word_3878": 3878, "dummy_word_3879": 3879, "dummy_word_3880": 3880, "dummy_word_3881": 3881, "dummy_word_3882": 3882, "dummy_word_3883": 3883, "dummy_word_3884": 3884, "dummy_word_3885": 3885, "dummy_word_3886": 3886, "dummy_word_3887": 3887, "dummy_word_3888": 3888, "dummy_word_3889": 3889, "dummy_word_3890": 3890, "dummy_word_3891": 3891, "dummy_word_3892": 3892, "dummy_word_3893": 3893, "dummy_word_3894": 3894, "dummy_word_3895": 3895, "dummy_word_3896": 3896, "dummy_word_3897": 3897, "dummy_word_3898": 3898, "dummy_word_3899": 3899, "dummy_word_3900": 3900, "dummy_word_3901": 3901, "dummy_word_3902": 3902, "dummy_word_3903": 3903, "dummy_word_3904": 3904, "dummy_word_3905": 3905, "dummy_word_3906": 3906, "dummy_word_3907": 3907, "dummy_word_3908": 3908, "dummy_word_3909": 3909, "dummy_word_3910": 3910, "dummy_word_3911": 3911, "dummy_word_3912": 3912, "dummy_word_3913": 3913, "dummy_word_3914": 3914, "dummy_word_3915": 3915, "dummy_word_3916": 3916, "dummy_word_3917": 3917, "dummy_word_3918": 3918, "dummy_word_3919": 3919, "dummy_word_3920": 3920, "dummy_word_3921": 3921, "dummy_word_3922": 3922, "dummy_word_3923": 3923, "dummy_word_3924": 3924, "dummy_word_3925": 3925, "dummy_word_3926": 3926, "dummy_word_3927": 3927, "dummy_word_3928": 3928, "dummy_word_3929": 3929, "dummy_word_3930": 3930, "dummy_word_3931": 3931, "dummy_word_3932": 3932, "dummy_word_3933": 3933, "dummy_word_3934": 3934, "dummy_word_3935": 3935, "dummy_word_3936": 3936, "dummy_word_3937": 3937, "dummy_word_3938": 3938, "dummy_word_3939": 3939, "dummy_word_3940": 3940, "dummy_word_3941": 3941, "dummy_word_3942": 3942, "dummy_word_3943": 3943, "dummy_word_3944": 3944, "dummy_word_3945": 3945, "dummy_word_3946": 3946, "dummy_word_3947": 3947, "dummy_word_3948": 3948, "dummy_word_3949": 3949, "dummy_word_3950": 3950, "dummy_word_3951": 3951, "dummy_word_3952": 3952, "dummy_word_3953": 3953, "dummy_word_3954": 3954, "dummy_word_3955": 3955, "dummy_word_3956": 3956, "dummy_word_3957": 3957, "dummy_word_3958": 3958, "dummy_word_3959": 3959, "dummy_word_3960": 3960, "dummy_word_3961": 3961, "dummy_word_3962": 3962, "dummy_word_3963": 3963, "dummy_word_3964": 3964, "dummy_word_3965": 3965, "dummy_word_3966": 3966, "dummy_word_3967": 3967, "dummy_word_3968": 3968, "dummy_word_3969": 3969, "dummy_word_3970": 3970, "dummy_word_3971": 3971, "dummy_word_3972": 3972, "dummy_word_3973": 3973, "dummy_word_3974": 3974, "dummy_word_3975": 3975, "dummy_word_3976": 3976, "dummy_word_3977": 3977, "dummy_word_3978": 3978, "dummy_word_3979": 3979, "dummy_word_3980": 3980, "dummy_word_3981": 3981, "dummy_word_3982": 3982, "dummy_word_3983": 3983, "dummy_word_3984": 3984, "dummy_word_3985": 3985, "dummy_word_3986": 3986, "dummy_word_3987": 3987, "dummy_word_3988": 3988, "dummy_word_3989": 3989, "dummy_word_3990": 3990, "dummy_word_3991": 3991, "dummy_word_3992": 3992, "dummy_word_3993": 3993, "dummy_word_3994": 3994, "dummy_word_3995": 3995, "dummy_word_3996": 3996, "dummy_word_3997": 3997, "dummy_word_3998": 3998, "dummy_word_3999": 3999, "dummy_word_4000": 4000, "dummy_word_4001": 4001, "dummy_word_4002": 4002, "dummy_word_4003": 4003, "dummy_word_4004": 4004, "dummy_word_4005": 4005, "dummy_word_4006": 4006, "dummy_word_4007": 4007, "dummy_word_4008": 4008, "dummy_word_4009": 4009, "dummy_word_4010": 4010, "dummy_word_4011": 4011, "dummy_word_4012": 4012, "dummy_word_4013": 4013, "dummy_word_4014": 4014, "dummy_word_4015": 4015, "dummy_word_4016": 4016, "dummy_word_4017": 4017, "dummy_word_4018": 4018, "dummy_word_4019": 4019, "dummy_word_4020": 4020, "dummy_word_4021": 4021, "dummy_word_4022": 4022, "dummy_word_4023": 4023, "dummy_word_4024": 4024, "dummy_word_4025": 4025, "dummy_word_4026": 4026, "dummy_word_4027": 4027, "dummy_word_4028": 4028, "dummy_word_4029": 4029, "dummy_word_4030": 4030, "dummy_word_4031": 4031, "dummy_word_4032": 4032, "dummy_word_4033": 4033, "dummy_word_4034": 4034, "dummy_word_4035": 4035, "dummy_word_4036": 4036, "dummy_word_4037": 4037, "dummy_word_4038": 4038, "dummy_word_4039": 4039, "dummy_word_4040": 4040, "dummy_word_4041": 4041, "dummy_word_4042": 4042, "dummy_word_4043": 4043, "dummy_word_4044": 4044, "dummy_word_4045": 4045, "dummy_word_4046": 4046, "dummy_word_4047": 4047, "dummy_word_4048": 4048, "dummy_word_4049": 4049, "dummy_word_4050": 4050, "dummy_word_4051": 4051, "dummy_word_4052": 4052, "dummy_word_4053": 4053, "dummy_word_4054": 4054, "dummy_word_4055": 4055, "dummy_word_4056": 4056, "dummy_word_4057": 4057, "dummy_word_4058": 4058, "dummy_word_4059": 4059, "dummy_word_4060": 4060, "dummy_word_4061": 4061, "dummy_word_4062": 4062, "dummy_word_4063": 4063, "dummy_word_4064": 4064, "dummy_word_4065": 4065, "dummy_word_4066": 4066, "dummy_word_4067": 4067, "dummy_word_4068": 4068, "dummy_word_4069": 4069, "dummy_word_4070": 4070, "dummy_word_4071": 4071, "dummy_word_4072": 4072, "dummy_word_4073": 4073, "dummy_word_4074": 4074, "dummy_word_4075": 4075, "dummy_word_4076": 4076, "dummy_word_4077": 4077, "dummy_word_4078": 4078, "dummy_word_4079": 4079, "dummy_word_4080": 4080, "dummy_word_4081": 4081, "dummy_word_4082": 4082, "dummy_word_4083": 4083, "dummy_word_4084": 4084, "dummy_word_4085": 4085, "dummy_word_4086": 4086, "dummy_word_4087": 4087, "dummy_word_4088": 4088, "dummy_word_4089": 4089, "dummy_word_4090": 4090, "dummy_word_4091": 4091, "dummy_word_4092": 4092, "dummy_word_4093": 4093, "dummy_word_4094": 4094, "dummy_word_4095": 4095, "dummy_word_4096": 4096, "dummy_word_4097": 4097, "dummy_word_4098": 4098, "dummy_word_4099": 4099, "dummy_word_4100": 4100, "dummy_word_4101": 4101, "dummy_word_4102": 4102, "dummy_word_4103": 4103, "dummy_word_4104": 4104, "dummy_word_4105": 4105, "dummy_word_4106": 4106, "dummy_word_4107": 4107, "dummy_word_4108": 4108, "dummy_word_4109": 4109, "dummy_word_4110": 4110, "dummy_word_4111": 4111, "dummy_word_4112": 4112, "dummy_word_4113": 4113, "dummy_word_4114": 4114, "dummy_word_4115": 4115, "dummy_word_4116": 4116, "dummy_word_4117": 4117, "dummy_word_4118": 4118, "dummy_word_4119": 4119, "dummy_word_4120": 4120, "dummy_word_4121": 4121, "dummy_word_4122": 4122, "dummy_word_4123": 4123, "dummy_word_4124": 4124, "dummy_word_4125": 4125, "dummy_word_4126": 4126, "dummy_word_4127": 4127, "dummy_word_4128": 4128, "dummy_word_4129": 4129, "dummy_word_4130": 4130, "dummy_word_4131": 4131, "dummy_word_4132": 4132, "dummy_word_4133": 4133, "dummy_word_4134": 4134, "dummy_word_4135": 4135, "dummy_word_4136": 4136, "dummy_word_4137": 4137, "dummy_word_4138": 4138, "dummy_word_4139": 4139, "dummy_word_4140": 4140, "dummy_word_4141": 4141, "dummy_word_4142": 4142, "dummy_word_4143": 4143, "dummy_word_4144": 4144, "dummy_word_4145": 4145, "dummy_word_4146": 4146, "dummy_word_4147": 4147, "dummy_word_4148": 4148, "dummy_word_4149": 4149, "dummy_word_4150": 4150, "dummy_word_4151": 4151, "dummy_word_4152": 4152, "dummy_word_4153": 4153, "dummy_word_4154": 4154, "dummy_word_4155": 4155, "dummy_word_4156": 4156, "dummy_word_4157": 4157, "dummy_word_4158": 4158, "dummy_word_4159": 4159, "dummy_word_4160": 4160, "dummy_word_4161": 4161, "dummy_word_4162": 4162, "dummy_word_4163": 4163, "dummy_word_4164": 4164, "dummy_word_4165": 4165, "dummy_word_4166": 4166, "dummy_word_4167": 4167, "dummy_word_4168": 4168, "dummy_word_4169": 4169, "dummy_word_4170": 4170, "dummy_word_4171": 4171, "dummy_word_4172": 4172, "dummy_word_4173": 4173, "dummy_word_4174": 4174, "dummy_word_4175": 4175, "dummy_word_4176": 4176, "dummy_word_4177": 4177, "dummy_word_4178": 4178, "dummy_word_4179": 4179, "dummy_word_4180": 4180, "dummy_word_4181": 4181, "dummy_word_4182": 4182, "dummy_word_4183": 4183, "dummy_word_4184": 4184, "dummy_word_4185": 4185, "dummy_word_4186": 4186, "dummy_word_4187": 4187, "dummy_word_4188": 4188, "dummy_word_4189": 4189, "dummy_word_4190": 4190, "dummy_word_4191": 4191, "dummy_word_4192": 4192, "dummy_word_4193": 4193, "dummy_word_4194": 4194, "dummy_word_4195": 4195, "dummy_word_4196": 4196, "dummy_word_4197": 4197, "dummy_word_4198": 4198, "dummy_word_4199": 4199, "dummy_word_4200": 4200, "dummy_word_4201": 4201, "dummy_word_4202": 4202, "dummy_word_4203": 4203, "dummy_word_4204": 4204, "dummy_word_4205": 4205, "dummy_word_4206": 4206, "dummy_word_4207": 4207, "dummy_word_4208": 4208, "dummy_word_4209": 4209, "dummy_word_4210": 4210, "dummy_word_4211": 4211, "dummy_word_4212": 4212, "dummy_word_4213": 4213, "dummy_word_4214": 4214, "dummy_word_4215": 4215, "dummy_word_4216": 4216, "dummy_word_4217": 4217, "dummy_word_4218": 4218, "dummy_word_4219": 4219, "dummy_word_4220": 4220, "dummy_word_4221": 4221, "dummy_word_4222": 4222, "dummy_word_4223": 4223, "dummy_word_4224": 4224, "dummy_word_4225": 4225, "dummy_word_4226": 4226, "dummy_word_4227": 4227, "dummy_word_4228": 4228, "dummy_word_4229": 4229, "dummy_word_4230": 4230, "dummy_word_4231": 4231, "dummy_word_4232": 4232, "dummy_word_4233": 4233, "dummy_word_4234": 4234, "dummy_word_4235": 4235, "dummy_word_4236": 4236, "dummy_word_4237": 4237, "dummy_word_4238": 4238, "dummy_word_4239": 4239, "dummy_word_4240": 4240, "dummy_word_4241": 4241, "dummy_word_4242": 4242, "dummy_word_4243": 4243, "dummy_word_4244": 4244, "dummy_word_4245": 4245, "dummy_word_4246": 4246, "dummy_word_4247": 4247, "dummy_word_4248": 4248, "dummy_word_4249": 4249, "dummy_word_4250": 4250, "dummy_word_4251": 4251, "dummy_word_4252": 4252, "dummy_word_4253": 4253, "dummy_word_4254": 4254, "dummy_word_4255": 4255, "dummy_word_4256": 4256, "dummy_word_4257": 4257, "dummy_word_4258": 4258, "dummy_word_4259": 4259, "dummy_word_4260": 4260, "dummy_word_4261": 4261, "dummy_word_4262": 4262, "dummy_word_4263": 4263, "dummy_word_4264": 4264, "dummy_word_4265": 4265, "dummy_word_4266": 4266, "dummy_word_4267": 4267, "dummy_word_4268": 4268, "dummy_word_4269": 4269, "dummy_word_4270": 4270, "dummy_word_4271": 4271, "dummy_word_4272": 4272, "dummy_word_4273": 4273, "dummy_word_4274": 4274, "dummy_word_4275": 4275, "dummy_word_4276": 4276, "dummy_word_4277": 4277, "dummy_word_4278": 4278, "dummy_word_4279": 4279, "dummy_word_4280": 4280, "dummy_word_4281": 4281, "dummy_word_4282": 4282, "dummy_word_4283": 4283, "dummy_word_4284": 4284, "dummy_word_4285": 4285, "dummy_word_4286": 4286, "dummy_word_4287": 4287, "dummy_word_4288": 4288, "dummy_word_4289": 4289, "dummy_word_4290": 4290, "dummy_word_4291": 4291, "dummy_word_4292": 4292, "dummy_word_4293": 4293, "dummy_word_4294": 4294, "dummy_word_4295": 4295, "dummy_word_4296": 4296, "dummy_word_4297": 4297, "dummy_word_4298": 4298, "dummy_word_4299": 4299, "dummy_word_4300": 4300, "dummy_word_4301": 4301, "dummy_word_4302": 4302, "dummy_word_4303": 4303, "dummy_word_4304": 4304, "dummy_word_4305": 4305, "dummy_word_4306": 4306, "dummy_word_4307": 4307, "dummy_word_4308": 4308, "dummy_word_4309": 4309, "dummy_word_4310": 4310, "dummy_word_4311": 4311, "dummy_word_4312": 4312, "dummy_word_4313": 4313, "dummy_word_4314": 4314, "dummy_word_4315": 4315, "dummy_word_4316": 4316, "dummy_word_4317": 4317, "dummy_word_4318": 4318, "dummy_word_4319": 4319, "dummy_word_4320": 4320, "dummy_word_4321": 4321, "dummy_word_4322": 4322, "dummy_word_4323": 4323, "dummy_word_4324": 4324, "dummy_word_4325": 4325, "dummy_word_4326": 4326, "dummy_word_4327": 4327, "dummy_word_4328": 4328, "dummy_word_4329": 4329, "dummy_word_4330": 4330, "dummy_word_4331": 4331, "dummy_word_4332": 4332, "dummy_word_4333": 4333, "dummy_word_4334": 4334, "dummy_word_4335": 4335, "dummy_word_4336": 4336, "dummy_word_4337": 4337, "dummy_word_4338": 4338, "dummy_word_4339": 4339, "dummy_word_4340": 4340, "dummy_word_4341": 4341, "dummy_word_4342": 4342, "dummy_word_4343": 4343, "dummy_word_4344": 4344, "dummy_word_4345": 4345, "dummy_word_4346": 4346, "dummy_word_4347": 4347, "dummy_word_4348": 4348, "dummy_word_4349": 4349, "dummy_word_4350": 4350, "dummy_word_4351": 4351, "dummy_word_4352": 4352, "dummy_word_4353": 4353, "dummy_word_4354": 4354, "dummy_word_4355": 4355, "dummy_word_4356": 4356, "dummy_word_4357": 4357, "dummy_word_4358": 4358, "dummy_word_4359": 4359, "dummy_word_4360": 4360, "dummy_word_4361": 4361, "dummy_word_4362": 4362, "dummy_word_4363": 4363, "dummy_word_4364": 4364, "dummy_word_4365": 4365, "dummy_word_4366": 4366, "dummy_word_4367": 4367, "dummy_word_4368": 4368, "dummy_word_4369": 4369, "dummy_word_4370": 4370, "dummy_word_4371": 4371, "dummy_word_4372": 4372, "dummy_word_4373": 4373, "dummy_word_4374": 4374, "dummy_word_4375": 4375, "dummy_word_4376": 4376, "dummy_word_4377": 4377, "dummy_word_4378": 4378, "dummy_word_4379": 4379, "dummy_word_4380": 4380, "dummy_word_4381": 4381, "dummy_word_4382": 4382, "dummy_word_4383": 4383, "dummy_word_4384": 4384, "dummy_word_4385": 4385, "dummy_word_4386": 4386, "dummy_word_4387": 4387, "dummy_word_4388": 4388, "dummy_word_4389": 4389, "dummy_word_4390": 4390, "dummy_word_4391": 4391, "dummy_word_4392": 4392, "dummy_word_4393": 4393, "dummy_word_4394": 4394, "dummy_word_4395": 4395, "dummy_word_4396": 4396, "dummy_word_4397": 4397, "dummy_word_4398": 4398, "dummy_word_4399": 4399, "dummy_word_4400": 4400, "dummy_word_4401": 4401, "dummy_word_4402": 4402, "dummy_word_4403": 4403, "dummy_word_4404": 4404, "dummy_word_4405": 4405, "dummy_word_4406": 4406, "dummy_word_4407": 4407, "dummy_word_4408": 4408, "dummy_word_4409": 4409, "dummy_word_4410": 4410, "dummy_word_4411": 4411, "dummy_word_4412": 4412, "dummy_word_4413": 4413, "dummy_word_4414": 4414, "dummy_word_4415": 4415, "dummy_word_4416": 4416, "dummy_word_4417": 4417, "dummy_word_4418": 4418, "dummy_word_4419": 4419, "dummy_word_4420": 4420, "dummy_word_4421": 4421, "dummy_word_4422": 4422, "dummy_word_4423": 4423, "dummy_word_4424": 4424, "dummy_word_4425": 4425, "dummy_word_4426": 4426, "dummy_word_4427": 4427, "dummy_word_4428": 4428, "dummy_word_4429": 4429, "dummy_word_4430": 4430, "dummy_word_4431": 4431, "dummy_word_4432": 4432, "dummy_word_4433": 4433, "dummy_word_4434": 4434, "dummy_word_4435": 4435, "dummy_word_4436": 4436, "dummy_word_4437": 4437, "dummy_word_4438": 4438, "dummy_word_4439": 4439, "dummy_word_4440": 4440, "dummy_word_4441": 4441, "dummy_word_4442": 4442, "dummy_word_4443": 4443, "dummy_word_4444": 4444, "dummy_word_4445": 4445, "dummy_word_4446": 4446, "dummy_word_4447": 4447, "dummy_word_4448": 4448, "dummy_word_4449": 4449, "dummy_word_4450": 4450, "dummy_word_4451": 4451, "dummy_word_4452": 4452, "dummy_word_4453": 4453, "dummy_word_4454": 4454, "dummy_word_4455": 4455, "dummy_word_4456": 4456, "dummy_word_4457": 4457, "dummy_word_4458": 4458, "dummy_word_4459": 4459, "dummy_word_4460": 4460, "dummy_word_4461": 4461, "dummy_word_4462": 4462, "dummy_word_4463": 4463, "dummy_word_4464": 4464, "dummy_word_4465": 4465, "dummy_word_4466": 4466, "dummy_word_4467": 4467, "dummy_word_4468": 4468, "dummy_word_4469": 4469, "dummy_word_4470": 4470, "dummy_word_4471": 4471, "dummy_word_4472": 4472, "dummy_word_4473": 4473, "dummy_word_4474": 4474, "dummy_word_4475": 4475, "dummy_word_4476": 4476, "dummy_word_4477": 4477, "dummy_word_4478": 4478, "dummy_word_4479": 4479, "dummy_word_4480": 4480, "dummy_word_4481": 4481, "dummy_word_4482": 4482, "dummy_word_4483": 4483, "dummy_word_4484": 4484, "dummy_word_4485": 4485, "dummy_word_4486": 4486, "dummy_word_4487": 4487, "dummy_word_4488": 4488, "dummy_word_4489": 4489, "dummy_word_4490": 4490, "dummy_word_4491": 4491, "dummy_word_4492": 4492, "dummy_word_4493": 4493, "dummy_word_4494": 4494, "dummy_word_4495": 4495, "dummy_word_4496": 4496, "dummy_word_4497": 4497, "dummy_word_4498": 4498, "dummy_word_4499": 4499, "dummy_word_4500": 4500, "dummy_word_4501": 4501, "dummy_word_4502": 4502, "dummy_word_4503": 4503, "dummy_word_4504": 4504, "dummy_word_4505": 4505, "dummy_word_4506": 4506, "dummy_word_4507": 4507, "dummy_word_4508": 4508, "dummy_word_4509": 4509, "dummy_word_4510": 4510, "dummy_word_4511": 4511, "dummy_word_4512": 4512, "dummy_word_4513": 4513, "dummy_word_4514": 4514, "dummy_word_4515": 4515, "dummy_word_4516": 4516, "dummy_word_4517": 4517, "dummy_word_4518": 4518, "dummy_word_4519": 4519, "dummy_word_4520": 4520, "dummy_word_4521": 4521, "dummy_word_4522": 4522, "dummy_word_4523": 4523, "dummy_word_4524": 4524, "dummy_word_4525": 4525, "dummy_word_4526": 4526, "dummy_word_4527": 4527, "dummy_word_4528": 4528, "dummy_word_4529": 4529, "dummy_word_4530": 4530, "dummy_word_4531": 4531, "dummy_word_4532": 4532, "dummy_word_4533": 4533, "dummy_word_4534": 4534, "dummy_word_4535": 4535, "dummy_word_4536": 4536, "dummy_word_4537": 4537, "dummy_word_4538": 4538, "dummy_word_4539": 4539, "dummy_word_4540": 4540, "dummy_word_4541": 4541, "dummy_word_4542": 4542, "dummy_word_4543": 4543, "dummy_word_4544": 4544, "dummy_word_4545": 4545, "dummy_word_4546": 4546, "dummy_word_4547": 4547, "dummy_word_4548": 4548, "dummy_word_4549": 4549, "dummy_word_4550": 4550, "dummy_word_4551": 4551, "dummy_word_4552": 4552, "dummy_word_4553": 4553, "dummy_word_4554": 4554, "dummy_word_4555": 4555, "dummy_word_4556": 4556, "dummy_word_4557": 4557, "dummy_word_4558": 4558, "dummy_word_4559": 4559, "dummy_word_4560": 4560, "dummy_word_4561": 4561, "dummy_word_4562": 4562, "dummy_word_4563": 4563, "dummy_word_4564": 4564, "dummy_word_4565": 4565, "dummy_word_4566": 4566, "dummy_word_4567": 4567, "dummy_word_4568": 4568, "dummy_word_4569": 4569, "dummy_word_4570": 4570, "dummy_word_4571": 4571, "dummy_word_4572": 4572, "dummy_word_4573": 4573, "dummy_word_4574": 4574, "dummy_word_4575": 4575, "dummy_word_4576": 4576, "dummy_word_4577": 4577, "dummy_word_4578": 4578, "dummy_word_4579": 4579, "dummy_word_4580": 4580, "dummy_word_4581": 4581, "dummy_word_4582": 4582, "dummy_word_4583": 4583, "dummy_word_4584": 4584, "dummy_word_4585": 4585, "dummy_word_4586": 4586, "dummy_word_4587": 4587, "dummy_word_4588": 4588, "dummy_word_4589": 4589, "dummy_word_4590": 4590, "dummy_word_4591": 4591, "dummy_word_4592": 4592, "dummy_word_4593": 4593, "dummy_word_4594": 4594, "dummy_word_4595": 4595, "dummy_word_4596": 4596, "dummy_word_4597": 4597, "dummy_word_4598": 4598, "dummy_word_4599": 4599, "dummy_word_4600": 4600, "dummy_word_4601": 4601, "dummy_word_4602": 4602, "dummy_word_4603": 4603, "dummy_word_4604": 4604, "dummy_word_4605": 4605, "dummy_word_4606": 4606, "dummy_word_4607": 4607, "dummy_word_4608": 4608, "dummy_word_4609": 4609, "dummy_word_4610": 4610, "dummy_word_4611": 4611, "dummy_word_4612": 4612, "dummy_word_4613": 4613, "dummy_word_4614": 4614, "dummy_word_4615": 4615, "dummy_word_4616": 4616, "dummy_word_4617": 4617, "dummy_word_4618": 4618, "dummy_word_4619": 4619, "dummy_word_4620": 4620, "dummy_word_4621": 4621, "dummy_word_4622": 4622, "dummy_word_4623": 4623, "dummy_word_4624": 4624, "dummy_word_4625": 4625, "dummy_word_4626": 4626, "dummy_word_4627": 4627, "dummy_word_4628": 4628, "dummy_word_4629": 4629, "dummy_word_4630": 4630, "dummy_word_4631": 4631, "dummy_word_4632": 4632, "dummy_word_4633": 4633, "dummy_word_4634": 4634, "dummy_word_4635": 4635, "dummy_word_4636": 4636, "dummy_word_4637": 4637, "dummy_word_4638": 4638, "dummy_word_4639": 4639, "dummy_word_4640": 4640, "dummy_word_4641": 4641, "dummy_word_4642": 4642, "dummy_word_4643": 4643, "dummy_word_4644": 4644, "dummy_word_4645": 4645, "dummy_word_4646": 4646, "dummy_word_4647": 4647, "dummy_word_4648": 4648, "dummy_word_4649": 4649, "dummy_word_4650": 4650, "dummy_word_4651": 4651, "dummy_word_4652": 4652, "dummy_word_4653": 4653, "dummy_word_4654": 4654, "dummy_word_4655": 4655, "dummy_word_4656": 4656, "dummy_word_4657": 4657, "dummy_word_4658": 4658, "dummy_word_4659": 4659, "dummy_word_4660": 4660, "dummy_word_4661": 4661, "dummy_word_4662": 4662, "dummy_word_4663": 4663, "dummy_word_4664": 4664, "dummy_word_4665": 4665, "dummy_word_4666": 4666, "dummy_word_4667": 4667, "dummy_word_4668": 4668, "dummy_word_4669": 4669, "dummy_word_4670": 4670, "dummy_word_4671": 4671, "dummy_word_4672": 4672, "dummy_word_4673": 4673, "dummy_word_4674": 4674, "dummy_word_4675": 4675, "dummy_word_4676": 4676, "dummy_word_4677": 4677, "dummy_word_4678": 4678, "dummy_word_4679": 4679, "dummy_word_4680": 4680, "dummy_word_4681": 4681, "dummy_word_4682": 4682, "dummy_word_4683": 4683, "dummy_word_4684": 4684, "dummy_word_4685": 4685, "dummy_word_4686": 4686, "dummy_word_4687": 4687, "dummy_word_4688": 4688, "dummy_word_4689": 4689, "dummy_word_4690": 4690, "dummy_word_4691": 4691, "dummy_word_4692": 4692, "dummy_word_4693": 4693, "dummy_word_4694": 4694, "dummy_word_4695": 4695, "dummy_word_4696": 4696, "dummy_word_4697": 4697, "dummy_word_4698": 4698, "dummy_word_4699": 4699, "dummy_word_4700": 4700, "dummy_word_4701": 4701, "dummy_word_4702": 4702, "dummy_word_4703": 4703, "dummy_word_4704": 4704, "dummy_word_4705": 4705, "dummy_word_4706": 4706, "dummy_word_4707": 4707, "dummy_word_4708": 4708, "dummy_word_4709": 4709, "dummy_word_4710": 4710, "dummy_word_4711": 4711, "dummy_word_4712": 4712, "dummy_word_4713": 4713, "dummy_word_4714": 4714, "dummy_word_4715": 4715, "dummy_word_4716": 4716, "dummy_word_4717": 4717, "dummy_word_4718": 4718, "dummy_word_4719": 4719, "dummy_word_4720": 4720, "dummy_word_4721": 4721, "dummy_word_4722": 4722, "dummy_word_4723": 4723, "dummy_word_4724": 4724, "dummy_word_4725": 4725, "dummy_word_4726": 4726, "dummy_word_4727": 4727, "dummy_word_4728": 4728, "dummy_word_4729": 4729, "dummy_word_4730": 4730, "dummy_word_4731": 4731, "dummy_word_4732": 4732, "dummy_word_4733": 4733, "dummy_word_4734": 4734, "dummy_word_4735": 4735, "dummy_word_4736": 4736, "dummy_word_4737": 4737, "dummy_word_4738": 4738, "dummy_word_4739": 4739, "dummy_word_4740": 4740, "dummy_word_4741": 4741, "dummy_word_4742": 4742, "dummy_word_4743": 4743, "dummy_word_4744": 4744, "dummy_word_4745": 4745, "dummy_word_4746": 4746, "dummy_word_4747": 4747, "dummy_word_4748": 4748, "dummy_word_4749": 4749, "dummy_word_4750": 4750, "dummy_word_4751": 4751, "dummy_word_4752": 4752, "dummy_word_4753": 4753, "dummy_word_4754": 4754, "dummy_word_4755": 4755, "dummy_word_4756": 4756, "dummy_word_4757": 4757, "dummy_word_4758": 4758, "dummy_word_4759": 4759, "dummy_word_4760": 4760, "dummy_word_4761": 4761, "dummy_word_4762": 4762, "dummy_word_4763": 4763, "dummy_word_4764": 4764, "dummy_word_4765": 4765, "dummy_word_4766": 4766, "dummy_word_4767": 4767, "dummy_word_4768": 4768, "dummy_word_4769": 4769, "dummy_word_4770": 4770, "dummy_word_4771": 4771, "dummy_word_4772": 4772, "dummy_word_4773": 4773, "dummy_word_4774": 4774, "dummy_word_4775": 4775, "dummy_word_4776": 4776, "dummy_word_4777": 4777, "dummy_word_4778": 4778, "dummy_word_4779": 4779, "dummy_word_4780": 4780, "dummy_word_4781": 4781, "dummy_word_4782": 4782, "dummy_word_4783": 4783, "dummy_word_4784": 4784, "dummy_word_4785": 4785, "dummy_word_4786": 4786, "dummy_word_4787": 4787, "dummy_word_4788": 4788, "dummy_word_4789": 4789, "dummy_word_4790": 4790, "dummy_word_4791": 4791, "dummy_word_4792": 4792, "dummy_word_4793": 4793, "dummy_word_4794": 4794, "dummy_word_4795": 4795, "dummy_word_4796": 4796, "dummy_word_4797": 4797, "dummy_word_4798": 4798, "dummy_word_4799": 4799, "dummy_word_4800": 4800, "dummy_word_4801": 4801, "dummy_word_4802": 4802, "dummy_word_4803": 4803, "dummy_word_4804": 4804, "dummy_word_4805": 4805, "dummy_word_4806": 4806, "dummy_word_4807": 4807, "dummy_word_4808": 4808, "dummy_word_4809": 4809, "dummy_word_4810": 4810, "dummy_word_4811": 4811, "dummy_word_4812": 4812, "dummy_word_4813": 4813, "dummy_word_4814": 4814, "dummy_word_4815": 4815, "dummy_word_4816": 4816, "dummy_word_4817": 4817, "dummy_word_4818": 4818, "dummy_word_4819": 4819, "dummy_word_4820": 4820, "dummy_word_4821": 4821, "dummy_word_4822": 4822, "dummy_word_4823": 4823, "dummy_word_4824": 4824, "dummy_word_4825": 4825, "dummy_word_4826": 4826, "dummy_word_4827": 4827, "dummy_word_4828": 4828, "dummy_word_4829": 4829, "dummy_word_4830": 4830, "dummy_word_4831": 4831, "dummy_word_4832": 4832, "dummy_word_4833": 4833, "dummy_word_4834": 4834, "dummy_word_4835": 4835, "dummy_word_4836": 4836, "dummy_word_4837": 4837, "dummy_word_4838": 4838, "dummy_word_4839": 4839, "dummy_word_4840": 4840, "dummy_word_4841": 4841, "dummy_word_4842": 4842, "dummy_word_4843": 4843, "dummy_word_4844": 4844, "dummy_word_4845": 4845, "dummy_word_4846": 4846, "dummy_word_4847": 4847, "dummy_word_4848": 4848, "dummy_word_4849": 4849, "dummy_word_4850": 4850, "dummy_word_4851": 4851, "dummy_word_4852": 4852, "dummy_word_4853": 4853, "dummy_word_4854": 4854, "dummy_word_4855": 4855, "dummy_word_4856": 4856, "dummy_word_4857": 4857, "dummy_word_4858": 4858, "dummy_word_4859": 4859, "dummy_word_4860": 4860, "dummy_word_4861": 4861, "dummy_word_4862": 4862, "dummy_word_4863": 4863, "dummy_word_4864": 4864, "dummy_word_4865": 4865, "dummy_word_4866": 4866, "dummy_word_4867": 4867, "dummy_word_4868": 4868, "dummy_word_4869": 4869, "dummy_word_4870": 4870, "dummy_word_4871": 4871, "dummy_word_4872": 4872, "dummy_word_4873": 4873, "dummy_word_4874": 4874, "dummy_word_4875": 4875, "dummy_word_4876": 4876, "dummy_word_4877": 4877, "dummy_word_4878": 4878, "dummy_word_4879": 4879, "dummy_word_4880": 4880, "dummy_word_4881": 4881, "dummy_word_4882": 4882, "dummy_word_4883": 4883, "dummy_word_4884": 4884, "dummy_word_4885": 4885, "dummy_word_4886": 4886, "dummy_word_4887": 4887, "dummy_word_4888": 4888, "dummy_word_4889": 4889, "dummy_word_4890": 4890, "dummy_word_4891": 4891, "dummy_word_4892": 4892, "dummy_word_4893": 4893, "dummy_word_4894": 4894, "dummy_word_4895": 4895, "dummy_word_4896": 4896, "dummy_word_4897": 4897, "dummy_word_4898": 4898, "dummy_word_4899": 4899, "dummy_word_4900": 4900, "dummy_word_4901": 4901, "dummy_word_4902": 4902, "dummy_word_4903": 4903, "dummy_word_4904": 4904, "dummy_word_4905": 4905, "dummy_word_4906": 4906, "dummy_word_4907": 4907, "dummy_word_4908": 4908, "dummy_word_4909": 4909, "dummy_word_4910": 4910, "dummy_word_4911": 4911, "dummy_word_4912": 4912, "dummy_word_4913": 4913, "dummy_word_4914": 4914, "dummy_word_4915": 4915, "dummy_word_4916": 4916, "dummy_word_4917": 4917, "dummy_word_4918": 4918, "dummy_word_4919": 4919, "dummy_word_4920": 4920, "dummy_word_4921": 4921, "dummy_word_4922": 4922, "dummy_word_4923": 4923, "dummy_word_4924": 4924, "dummy_word_4925": 4925, "dummy_word_4926": 4926, "dummy_word_4927": 4927, "dummy_word_4928": 4928, "dummy_word_4929": 4929, "dummy_word_4930": 4930, "dummy_word_4931": 4931, "dummy_word_4932": 4932, "dummy_word_4933": 4933, "dummy_word_4934": 4934, "dummy_word_4935": 4935, "dummy_word_4936": 4936, "dummy_word_4937": 4937, "dummy_word_4938": 4938, "dummy_word_4939": 4939, "dummy_word_4940": 4940, "dummy_word_4941": 4941, "dummy_word_4942": 4942, "dummy_word_4943": 4943, "dummy_word_4944": 4944, "dummy_word_4945": 4945, "dummy_word_4946": 4946, "dummy_word_4947": 4947, "dummy_word_4948": 4948, "dummy_word_4949": 4949, "dummy_word_4950": 4950, "dummy_word_4951": 4951, "dummy_word_4952": 4952, "dummy_word_4953": 4953, "dummy_word_4954": 4954, "dummy_word_4955": 4955, "dummy_word_4956": 4956, "dummy_word_4957": 4957, "dummy_word_4958": 4958, "dummy_word_4959": 4959, "dummy_word_4960": 4960, "dummy_word_4961": 4961, "dummy_word_4962": 4962, "dummy_word_4963": 4963, "dummy_word_4964": 4964, "dummy_word_4965": 4965, "dummy_word_4966": 4966, "dummy_word_4967": 4967, "dummy_word_4968": 4968, "dummy_word_4969": 4969, "dummy_word_4970": 4970, "dummy_word_4971": 4971, "dummy_word_4972": 4972, "dummy_word_4973": 4973, "dummy_word_4974": 4974, "dummy_word_4975": 4975, "dummy_word_4976": 4976, "dummy_word_4977": 4977, "dummy_word_4978": 4978, "dummy_word_4979": 4979, "dummy_word_4980": 4980, "dummy_word_4981": 4981, "dummy_word_4982": 4982, "dummy_word_4983": 4983, "dummy_word_4984": 4984, "dummy_word_4985": 4985, "dummy_word_4986": 4986, "dummy_word_4987": 4987, "dummy_word_4988": 4988, "dummy_word_4989": 4989, "dummy_word_4990": 4990, "dummy_word_4991": 4991, "dummy_word_4992": 4992, "dummy_word_4993": 4993, "dummy_word_4994": 4994, "dummy_word_4995": 4995, "dummy_word_4996": 4996, "dummy_word_4997": 4997, "dummy_word_4998": 4998, "dummy_word_4999": 4999, "dummy_word_5000": 5000, "dummy_word_5001": 5001, "dummy_word_5002": 5002, "dummy_word_5003": 5003, "dummy_word_5004": 5004, "dummy_word_5005": 5005, "dummy_word_5006": 5006, "dummy_word_5007": 5007, "dummy_word_5008": 5008, "dummy_word_5009": 5009, "dummy_word_5010": 5010, "dummy_word_5011": 5011, "dummy_word_5012": 5012, "dummy_word_5013": 5013, "dummy_word_5014": 5014, "dummy_word_5015": 5015, "dummy_word_5016": 5016, "dummy_word_5017": 5017, "dummy_word_5018": 5018, "dummy_word_5019": 5019, "dummy_word_5020": 5020, "dummy_word_5021": 5021, "dummy_word_5022": 5022, "dummy_word_5023": 5023, "dummy_word_5024": 5024, "dummy_word_5025": 5025, "dummy_word_5026": 5026, "dummy_word_5027": 5027, "dummy_word_5028": 5028, "dummy_word_5029": 5029, "dummy_word_5030": 5030, "dummy_word_5031": 5031, "dummy_word_5032": 5032, "dummy_word_5033": 5033, "dummy_word_5034": 5034, "dummy_word_5035": 5035, "dummy_word_5036": 5036, "dummy_word_5037": 5037, "dummy_word_5038": 5038, "dummy_word_5039": 5039, "dummy_word_5040": 5040, "dummy_word_5041": 5041, "dummy_word_5042": 5042, "dummy_word_5043": 5043, "dummy_word_5044": 5044, "dummy_word_5045": 5045, "dummy_word_5046": 5046, "dummy_word_5047": 5047, "dummy_word_5048": 5048, "dummy_word_5049": 5049, "dummy_word_5050": 5050, "dummy_word_5051": 5051, "dummy_word_5052": 5052, "dummy_word_5053": 5053, "dummy_word_5054": 5054, "dummy_word_5055": 5055, "dummy_word_5056": 5056, "dummy_word_5057": 5057, "dummy_word_5058": 5058, "dummy_word_5059": 5059, "dummy_word_5060": 5060, "dummy_word_5061": 5061, "dummy_word_5062": 5062, "dummy_word_5063": 5063, "dummy_word_5064": 5064, "dummy_word_5065": 5065, "dummy_word_5066": 5066, "dummy_word_5067": 5067, "dummy_word_5068": 5068, "dummy_word_5069": 5069, "dummy_word_5070": 5070, "dummy_word_5071": 5071, "dummy_word_5072": 5072, "dummy_word_5073": 5073, "dummy_word_5074": 5074, "dummy_word_5075": 5075, "dummy_word_5076": 5076, "dummy_word_5077": 5077, "dummy_word_5078": 5078, "dummy_word_5079": 5079, "dummy_word_5080": 5080, "dummy_word_5081": 5081, "dummy_word_5082": 5082, "dummy_word_5083": 5083, "dummy_word_5084": 5084, "dummy_word_5085": 5085, "dummy_word_5086": 5086, "dummy_word_5087": 5087, "dummy_word_5088": 5088, "dummy_word_5089": 5089, "dummy_word_5090": 5090, "dummy_word_5091": 5091, "dummy_word_5092": 5092, "dummy_word_5093": 5093, "dummy_word_5094": 5094, "dummy_word_5095": 5095, "dummy_word_5096": 5096, "dummy_word_5097": 5097, "dummy_word_5098": 5098, "dummy_word_5099": 5099, "dummy_word_5100": 5100, "dummy_word_5101": 5101, "dummy_word_5102": 5102, "dummy_word_5103": 5103, "dummy_word_5104": 5104, "dummy_word_5105": 5105, "dummy_word_5106": 5106, "dummy_word_5107": 5107, "dummy_word_5108": 5108, "dummy_word_5109": 5109, "dummy_word_5110": 5110, "dummy_word_5111": 5111, "dummy_word_5112": 5112, "dummy_word_5113": 5113, "dummy_word_5114": 5114, "dummy_word_5115": 5115, "dummy_word_5116": 5116, "dummy_word_5117": 5117, "dummy_word_5118": 5118, "dummy_word_5119": 5119, "dummy_word_5120": 5120, "dummy_word_5121": 5121, "dummy_word_5122": 5122, "dummy_word_5123": 5123, "dummy_word_5124": 5124, "dummy_word_5125": 5125, "dummy_word_5126": 5126, "dummy_word_5127": 5127, "dummy_word_5128": 5128, "dummy_word_5129": 5129, "dummy_word_5130": 5130, "dummy_word_5131": 5131, "dummy_word_5132": 5132, "dummy_word_5133": 5133, "dummy_word_5134": 5134, "dummy_word_5135": 5135, "dummy_word_5136": 5136, "dummy_word_5137": 5137, "dummy_word_5138": 5138, "dummy_word_5139": 5139, "dummy_word_5140": 5140, "dummy_word_5141": 5141, "dummy_word_5142": 5142, "dummy_word_5143": 5143, "dummy_word_5144": 5144, "dummy_word_5145": 5145, "dummy_word_5146": 5146, "dummy_word_5147": 5147, "dummy_word_5148": 5148, "dummy_word_5149": 5149, "dummy_word_5150": 5150, "dummy_word_5151": 5151, "dummy_word_5152": 5152, "dummy_word_5153": 5153, "dummy_word_5154": 5154, "dummy_word_5155": 5155, "dummy_word_5156": 5156, "dummy_word_5157": 5157, "dummy_word_5158": 5158, "dummy_word_5159": 5159, "dummy_word_5160": 5160, "dummy_word_5161": 5161, "dummy_word_5162": 5162, "dummy_word_5163": 5163, "dummy_word_5164": 5164, "dummy_word_5165": 5165, "dummy_word_5166": 5166, "dummy_word_5167": 5167, "dummy_word_5168": 5168, "dummy_word_5169": 5169, "dummy_word_5170": 5170, "dummy_word_5171": 5171, "dummy_word_5172": 5172, "dummy_word_5173": 5173, "dummy_word_5174": 5174, "dummy_word_5175": 5175, "dummy_word_5176": 5176, "dummy_word_5177": 5177, "dummy_word_5178": 5178, "dummy_word_5179": 5179, "dummy_word_5180": 5180, "dummy_word_5181": 5181, "dummy_word_5182": 5182, "dummy_word_5183": 5183, "dummy_word_5184": 5184, "dummy_word_5185": 5185, "dummy_word_5186": 5186, "dummy_word_5187": 5187, "dummy_word_5188": 5188, "dummy_word_5189": 5189, "dummy_word_5190": 5190, "dummy_word_5191": 5191, "dummy_word_5192": 5192, "dummy_word_5193": 5193, "dummy_word_5194": 5194, "dummy_word_5195": 5195, "dummy_word_5196": 5196, "dummy_word_5197": 5197, "dummy_word_5198": 5198, "dummy_word_5199": 5199, "dummy_word_5200": 5200, "dummy_word_5201": 5201, "dummy_word_5202": 5202, "dummy_word_5203": 5203, "dummy_word_5204": 5204, "dummy_word_5205": 5205, "dummy_word_5206": 5206, "dummy_word_5207": 5207, "dummy_word_5208": 5208, "dummy_word_5209": 5209, "dummy_word_5210": 5210, "dummy_word_5211": 5211, "dummy_word_5212": 5212, "dummy_word_5213": 5213, "dummy_word_5214": 5214, "dummy_word_5215": 5215, "dummy_word_5216": 5216, "dummy_word_5217": 5217, "dummy_word_5218": 5218, "dummy_word_5219": 5219, "dummy_word_5220": 5220, "dummy_word_5221": 5221, "dummy_word_5222": 5222, "dummy_word_5223": 5223, "dummy_word_5224": 5224, "dummy_word_5225": 5225, "dummy_word_5226": 5226, "dummy_word_5227": 5227, "dummy_word_5228": 5228, "dummy_word_5229": 5229, "dummy_word_5230": 5230, "dummy_word_5231": 5231, "dummy_word_5232": 5232, "dummy_word_5233": 5233, "dummy_word_5234": 5234, "dummy_word_5235": 5235, "dummy_word_5236": 5236, "dummy_word_5237": 5237, "dummy_word_5238": 5238, "dummy_word_5239": 5239, "dummy_word_5240": 5240, "dummy_word_5241": 5241, "dummy_word_5242": 5242, "dummy_word_5243": 5243, "dummy_word_5244": 5244, "dummy_word_5245": 5245, "dummy_word_5246": 5246, "dummy_word_5247": 5247, "dummy_word_5248": 5248, "dummy_word_5249": 5249, "dummy_word_5250": 5250, "dummy_word_5251": 5251, "dummy_word_5252": 5252, "dummy_word_5253": 5253, "dummy_word_5254": 5254, "dummy_word_5255": 5255, "dummy_word_5256": 5256, "dummy_word_5257": 5257, "dummy_word_5258": 5258, "dummy_word_5259": 5259, "dummy_word_5260": 5260, "dummy_word_5261": 5261, "dummy_word_5262": 5262, "dummy_word_5263": 5263, "dummy_word_5264": 5264, "dummy_word_5265": 5265, "dummy_word_5266": 5266, "dummy_word_5267": 5267, "dummy_word_5268": 5268, "dummy_word_5269": 5269, "dummy_word_5270": 5270, "dummy_word_5271": 5271, "dummy_word_5272": 5272, "dummy_word_5273": 5273, "dummy_word_5274": 5274, "dummy_word_5275": 5275, "dummy_word_5276": 5276, "dummy_word_5277": 5277, "dummy_word_5278": 5278, "dummy_word_5279": 5279, "dummy_word_5280": 5280, "dummy_word_5281": 5281, "dummy_word_5282": 5282, "dummy_word_5283": 5283, "dummy_word_5284": 5284, "dummy_word_5285": 5285, "dummy_word_5286": 5286, "dummy_word_5287": 5287, "dummy_word_5288": 5288, "dummy_word_5289": 5289, "dummy_word_5290": 5290, "dummy_word_5291": 5291, "dummy_word_5292": 5292, "dummy_word_5293": 5293, "dummy_word_5294": 5294, "dummy_word_5295": 5295, "dummy_word_5296": 5296, "dummy_word_5297": 5297, "dummy_word_5298": 5298, "dummy_word_5299": 5299, "dummy_word_5300": 5300, "dummy_word_5301": 5301, "dummy_word_5302": 5302, "dummy_word_5303": 5303, "dummy_word_5304": 5304, "dummy_word_5305": 5305, "dummy_word_5306": 5306, "dummy_word_5307": 5307, "dummy_word_5308": 5308, "dummy_word_5309": 5309, "dummy_word_5310": 5310, "dummy_word_5311": 5311, "dummy_word_5312": 5312, "dummy_word_5313": 5313, "dummy_word_5314": 5314, "dummy_word_5315": 5315, "dummy_word_5316": 5316, "dummy_word_5317": 5317, "dummy_word_5318": 5318, "dummy_word_5319": 5319, "dummy_word_5320": 5320, "dummy_word_5321": 5321, "dummy_word_5322": 5322, "dummy_word_5323": 5323, "dummy_word_5324": 5324, "dummy_word_5325": 5325, "dummy_word_5326": 5326, "dummy_word_5327": 5327, "dummy_word_5328": 5328, "dummy_word_5329": 5329, "dummy_word_5330": 5330, "dummy_word_5331": 5331, "dummy_word_5332": 5332, "dummy_word_5333": 5333, "dummy_word_5334": 5334, "dummy_word_5335": 5335, "dummy_word_5336": 5336, "dummy_word_5337": 5337, "dummy_word_5338": 5338, "dummy_word_5339": 5339, "dummy_word_5340": 5340, "dummy_word_5341": 5341, "dummy_word_5342": 5342, "dummy_word_5343": 5343, "dummy_word_5344": 5344, "dummy_word_5345": 5345, "dummy_word_5346": 5346, "dummy_word_5347": 5347, "dummy_word_5348": 5348, "dummy_word_5349": 5349, "dummy_word_5350": 5350, "dummy_word_5351": 5351, "dummy_word_5352": 5352, "dummy_word_5353": 5353, "dummy_word_5354": 5354, "dummy_word_5355": 5355, "dummy_word_5356": 5356, "dummy_word_5357": 5357, "dummy_word_5358": 5358, "dummy_word_5359": 5359, "dummy_word_5360": 5360, "dummy_word_5361": 5361, "dummy_word_5362": 5362, "dummy_word_5363": 5363, "dummy_word_5364": 5364, "dummy_word_5365": 5365, "dummy_word_5366": 5366, "dummy_word_5367": 5367, "dummy_word_5368": 5368, "dummy_word_5369": 5369, "dummy_word_5370": 5370, "dummy_word_5371": 5371, "dummy_word_5372": 5372, "dummy_word_5373": 5373, "dummy_word_5374": 5374, "dummy_word_5375": 5375, "dummy_word_5376": 5376, "dummy_word_5377": 5377, "dummy_word_5378": 5378, "dummy_word_5379": 5379, "dummy_word_5380": 5380, "dummy_word_5381": 5381, "dummy_word_5382": 5382, "dummy_word_5383": 5383, "dummy_word_5384": 5384, "dummy_word_5385": 5385, "dummy_word_5386": 5386, "dummy_word_5387": 5387, "dummy_word_5388": 5388, "dummy_word_5389": 5389, "dummy_word_5390": 5390, "dummy_word_5391": 5391, "dummy_word_5392": 5392, "dummy_word_5393": 5393, "dummy_word_5394": 5394, "dummy_word_5395": 5395, "dummy_word_5396": 5396, "dummy_word_5397": 5397, "dummy_word_5398": 5398, "dummy_word_5399": 5399, "dummy_word_5400": 5400, "dummy_word_5401": 5401, "dummy_word_5402": 5402, "dummy_word_5403": 5403, "dummy_word_5404": 5404, "dummy_word_5405": 5405, "dummy_word_5406": 5406, "dummy_word_5407": 5407, "dummy_word_5408": 5408, "dummy_word_5409": 5409, "dummy_word_5410": 5410, "dummy_word_5411": 5411, "dummy_word_5412": 5412, "dummy_word_5413": 5413, "dummy_word_5414": 5414, "dummy_word_5415": 5415, "dummy_word_5416": 5416, "dummy_word_5417": 5417, "dummy_word_5418": 5418, "dummy_word_5419": 5419, "dummy_word_5420": 5420, "dummy_word_5421": 5421, "dummy_word_5422": 5422, "dummy_word_5423": 5423, "dummy_word_5424": 5424, "dummy_word_5425": 5425, "dummy_word_5426": 5426, "dummy_word_5427": 5427, "dummy_word_5428": 5428, "dummy_word_5429": 5429, "dummy_word_5430": 5430, "dummy_word_5431": 5431, "dummy_word_5432": 5432, "dummy_word_5433": 5433, "dummy_word_5434": 5434, "dummy_word_5435": 5435, "dummy_word_5436": 5436, "dummy_word_5437": 5437, "dummy_word_5438": 5438, "dummy_word_5439": 5439, "dummy_word_5440": 5440, "dummy_word_5441": 5441, "dummy_word_5442": 5442, "dummy_word_5443": 5443, "dummy_word_5444": 5444, "dummy_word_5445": 5445, "dummy_word_5446": 5446, "dummy_word_5447": 5447, "dummy_word_5448": 5448, "dummy_word_5449": 5449, "dummy_word_5450": 5450, "dummy_word_5451": 5451, "dummy_word_5452": 5452, "dummy_word_5453": 5453, "dummy_word_5454": 5454, "dummy_word_5455": 5455, "dummy_word_5456": 5456, "dummy_word_5457": 5457, "dummy_word_5458": 5458, "dummy_word_5459": 5459, "dummy_word_5460": 5460, "dummy_word_5461": 5461, "dummy_word_5462": 5462, "dummy_word_5463": 5463, "dummy_word_5464": 5464, "dummy_word_5465": 5465, "dummy_word_5466": 5466, "dummy_word_5467": 5467, "dummy_word_5468": 5468, "dummy_word_5469": 5469, "dummy_word_5470": 5470, "dummy_word_5471": 5471, "dummy_word_5472": 5472, "dummy_word_5473": 5473, "dummy_word_5474": 5474, "dummy_word_5475": 5475, "dummy_word_5476": 5476, "dummy_word_5477": 5477, "dummy_word_5478": 5478, "dummy_word_5479": 5479, "dummy_word_5480": 5480, "dummy_word_5481": 5481, "dummy_word_5482": 5482, "dummy_word_5483": 5483, "dummy_word_5484": 5484, "dummy_word_5485": 5485, "dummy_word_5486": 5486, "dummy_word_5487": 5487, "dummy_word_5488": 5488, "dummy_word_5489": 5489, "dummy_word_5490": 5490, "dummy_word_5491": 5491, "dummy_word_5492": 5492, "dummy_word_5493": 5493, "dummy_word_5494": 5494, "dummy_word_5495": 5495, "dummy_word_5496": 5496, "dummy_word_5497": 5497, "dummy_word_5498": 5498, "dummy_word_5499": 5499, "dummy_word_5500": 5500, "dummy_word_5501": 5501, "dummy_word_5502": 5502, "dummy_word_5503": 5503, "dummy_word_5504": 5504, "dummy_word_5505": 5505, "dummy_word_5506": 5506, "dummy_word_5507": 5507, "dummy_word_5508": 5508, "dummy_word_5509": 5509, "dummy_word_5510": 5510, "dummy_word_5511": 5511, "dummy_word_5512": 5512, "dummy_word_5513": 5513, "dummy_word_5514": 5514, "dummy_word_5515": 5515, "dummy_word_5516": 5516, "dummy_word_5517": 5517, "dummy_word_5518": 5518, "dummy_word_5519": 5519, "dummy_word_5520": 5520, "dummy_word_5521": 5521, "dummy_word_5522": 5522, "dummy_word_5523": 5523, "dummy_word_5524": 5524, "dummy_word_5525": 5525, "dummy_word_5526": 5526, "dummy_word_5527": 5527, "dummy_word_5528": 5528, "dummy_word_5529": 5529, "dummy_word_5530": 5530, "dummy_word_5531": 5531, "dummy_word_5532": 5532, "dummy_word_5533": 5533, "dummy_word_5534": 5534, "dummy_word_5535": 5535, "dummy_word_5536": 5536, "dummy_word_5537": 5537, "dummy_word_5538": 5538, "dummy_word_5539": 5539, "dummy_word_5540": 5540, "dummy_word_5541": 5541, "dummy_word_5542": 5542, "dummy_word_5543": 5543, "dummy_word_5544": 5544, "dummy_word_5545": 5545, "dummy_word_5546": 5546, "dummy_word_5547": 5547, "dummy_word_5548": 5548, "dummy_word_5549": 5549, "dummy_word_5550": 5550, "dummy_word_5551": 5551, "dummy_word_5552": 5552, "dummy_word_5553": 5553, "dummy_word_5554": 5554, "dummy_word_5555": 5555, "dummy_word_5556": 5556, "dummy_word_5557": 5557, "dummy_word_5558": 5558, "dummy_word_5559": 5559, "dummy_word_5560": 5560, "dummy_word_5561": 5561, "dummy_word_5562": 5562, "dummy_word_5563": 5563, "dummy_word_5564": 5564, "dummy_word_5565": 5565, "dummy_word_5566": 5566, "dummy_word_5567": 5567, "dummy_word_5568": 5568, "dummy_word_5569": 5569, "dummy_word_5570": 5570, "dummy_word_5571": 5571, "dummy_word_5572": 5572, "dummy_word_5573": 5573, "dummy_word_5574": 5574, "dummy_word_5575": 5575, "dummy_word_5576": 5576, "dummy_word_5577": 5577, "dummy_word_5578": 5578, "dummy_word_5579": 5579, "dummy_word_5580": 5580, "dummy_word_5581": 5581, "dummy_word_5582": 5582, "dummy_word_5583": 5583, "dummy_word_5584": 5584, "dummy_word_5585": 5585, "dummy_word_5586": 5586, "dummy_word_5587": 5587, "dummy_word_5588": 5588, "dummy_word_5589": 5589, "dummy_word_5590": 5590, "dummy_word_5591": 5591, "dummy_word_5592": 5592, "dummy_word_5593": 5593, "dummy_word_5594": 5594, "dummy_word_5595": 5595, "dummy_word_5596": 5596, "dummy_word_5597": 5597, "dummy_word_5598": 5598, "dummy_word_5599": 5599, "dummy_word_5600": 5600, "dummy_word_5601": 5601, "dummy_word_5602": 5602, "dummy_word_5603": 5603, "dummy_word_5604": 5604, "dummy_word_5605": 5605, "dummy_word_5606": 5606, "dummy_word_5607": 5607, "dummy_word_5608": 5608, "dummy_word_5609": 5609, "dummy_word_5610": 5610, "dummy_word_5611": 5611, "dummy_word_5612": 5612, "dummy_word_5613": 5613, "dummy_word_5614": 5614, "dummy_word_5615": 5615, "dummy_word_5616": 5616, "dummy_word_5617": 5617, "dummy_word_5618": 5618, "dummy_word_5619": 5619, "dummy_word_5620": 5620, "dummy_word_5621": 5621, "dummy_word_5622": 5622, "dummy_word_5623": 5623, "dummy_word_5624": 5624, "dummy_word_5625": 5625, "dummy_word_5626": 5626, "dummy_word_5627": 5627, "dummy_word_5628": 5628, "dummy_word_5629": 5629, "dummy_word_5630": 5630, "dummy_word_5631": 5631, "dummy_word_5632": 5632, "dummy_word_5633": 5633, "dummy_word_5634": 5634, "dummy_word_5635": 5635, "dummy_word_5636": 5636, "dummy_word_5637": 5637, "dummy_word_5638": 5638, "dummy_word_5639": 5639, "dummy_word_5640": 5640, "dummy_word_5641": 5641, "dummy_word_5642": 5642, "dummy_word_5643": 5643, "dummy_word_5644": 5644, "dummy_word_5645": 5645, "dummy_word_5646": 5646, "dummy_word_5647": 5647, "dummy_word_5648": 5648, "dummy_word_5649": 5649, "dummy_word_5650": 5650, "dummy_word_5651": 5651, "dummy_word_5652": 5652, "dummy_word_5653": 5653, "dummy_word_5654": 5654, "dummy_word_5655": 5655, "dummy_word_5656": 5656, "dummy_word_5657": 5657, "dummy_word_5658": 5658, "dummy_word_5659": 5659, "dummy_word_5660": 5660, "dummy_word_5661": 5661, "dummy_word_5662": 5662, "dummy_word_5663": 5663, "dummy_word_5664": 5664, "dummy_word_5665": 5665, "dummy_word_5666": 5666, "dummy_word_5667": 5667, "dummy_word_5668": 5668, "dummy_word_5669": 5669, "dummy_word_5670": 5670, "dummy_word_5671": 5671, "dummy_word_5672": 5672, "dummy_word_5673": 5673, "dummy_word_5674": 5674, "dummy_word_5675": 5675, "dummy_word_5676": 5676, "dummy_word_5677": 5677, "dummy_word_5678": 5678, "dummy_word_5679": 5679, "dummy_word_5680": 5680, "dummy_word_5681": 5681, "dummy_word_5682": 5682, "dummy_word_5683": 5683, "dummy_word_5684": 5684, "dummy_word_5685": 5685, "dummy_word_5686": 5686, "dummy_word_5687": 5687, "dummy_word_5688": 5688, "dummy_word_5689": 5689, "dummy_word_5690": 5690, "dummy_word_5691": 5691, "dummy_word_5692": 5692, "dummy_word_5693": 5693, "dummy_word_5694": 5694, "dummy_word_5695": 5695, "dummy_word_5696": 5696, "dummy_word_5697": 5697, "dummy_word_5698": 5698, "dummy_word_5699": 5699, "dummy_word_5700": 5700, "dummy_word_5701": 5701, "dummy_word_5702": 5702, "dummy_word_5703": 5703, "dummy_word_5704": 5704, "dummy_word_5705": 5705, "dummy_word_5706": 5706, "dummy_word_5707": 5707, "dummy_word_5708": 5708, "dummy_word_5709": 5709, "dummy_word_5710": 5710, "dummy_word_5711": 5711, "dummy_word_5712": 5712, "dummy_word_5713": 5713, "dummy_word_5714": 5714, "dummy_word_5715": 5715, "dummy_word_5716": 5716, "dummy_word_5717": 5717, "dummy_word_5718": 5718, "dummy_word_5719": 5719, "dummy_word_5720": 5720, "dummy_word_5721": 5721, "dummy_word_5722": 5722, "dummy_word_5723": 5723, "dummy_word_5724": 5724, "dummy_word_5725": 5725, "dummy_word_5726": 5726, "dummy_word_5727": 5727, "dummy_word_5728": 5728, "dummy_word_5729": 5729, "dummy_word_5730": 5730, "dummy_word_5731": 5731, "dummy_word_5732": 5732, "dummy_word_5733": 5733, "dummy_word_5734": 5734, "dummy_word_5735": 5735, "dummy_word_5736": 5736, "dummy_word_5737": 5737, "dummy_word_5738": 5738, "dummy_word_5739": 5739, "dummy_word_5740": 5740, "dummy_word_5741": 5741, "dummy_word_5742": 5742, "dummy_word_5743": 5743, "dummy_word_5744": 5744, "dummy_word_5745": 5745, "dummy_word_5746": 5746, "dummy_word_5747": 5747, "dummy_word_5748": 5748, "dummy_word_5749": 5749, "dummy_word_5750": 5750, "dummy_word_5751": 5751, "dummy_word_5752": 5752, "dummy_word_5753": 5753, "dummy_word_5754": 5754, "dummy_word_5755": 5755, "dummy_word_5756": 5756, "dummy_word_5757": 5757, "dummy_word_5758": 5758, "dummy_word_5759": 5759, "dummy_word_5760": 5760, "dummy_word_5761": 5761, "dummy_word_5762": 5762, "dummy_word_5763": 5763, "dummy_word_5764": 5764, "dummy_word_5765": 5765, "dummy_word_5766": 5766, "dummy_word_5767": 5767, "dummy_word_5768": 5768, "dummy_word_5769": 5769, "dummy_word_5770": 5770, "dummy_word_5771": 5771, "dummy_word_5772": 5772, "dummy_word_5773": 5773, "dummy_word_5774": 5774, "dummy_word_5775": 5775, "dummy_word_5776": 5776, "dummy_word_5777": 5777, "dummy_word_5778": 5778, "dummy_word_5779": 5779, "dummy_word_5780": 5780, "dummy_word_5781": 5781, "dummy_word_5782": 5782, "dummy_word_5783": 5783, "dummy_word_5784": 5784, "dummy_word_5785": 5785, "dummy_word_5786": 5786, "dummy_word_5787": 5787, "dummy_word_5788": 5788, "dummy_word_5789": 5789, "dummy_word_5790": 5790, "dummy_word_5791": 5791, "dummy_word_5792": 5792, "dummy_word_5793": 5793, "dummy_word_5794": 5794, "dummy_word_5795": 5795, "dummy_word_5796": 5796, "dummy_word_5797": 5797, "dummy_word_5798": 5798, "dummy_word_5799": 5799, "dummy_word_5800": 5800, "dummy_word_5801": 5801, "dummy_word_5802": 5802, "dummy_word_5803": 5803, "dummy_word_5804": 5804, "dummy_word_5805": 5805, "dummy_word_5806": 5806, "dummy_word_5807": 5807, "dummy_word_5808": 5808, "dummy_word_5809": 5809, "dummy_word_5810": 5810, "dummy_word_5811": 5811, "dummy_word_5812": 5812, "dummy_word_5813": 5813, "dummy_word_5814": 5814, "dummy_word_5815": 5815, "dummy_word_5816": 5816, "dummy_word_5817": 5817, "dummy_word_5818": 5818, "dummy_word_5819": 5819, "dummy_word_5820": 5820, "dummy_word_5821": 5821, "dummy_word_5822": 5822, "dummy_word_5823": 5823, "dummy_word_5824": 5824, "dummy_word_5825": 5825, "dummy_word_5826": 5826, "dummy_word_5827": 5827, "dummy_word_5828": 5828, "dummy_word_5829": 5829, "dummy_word_5830": 5830, "dummy_word_5831": 5831, "dummy_word_5832": 5832, "dummy_word_5833": 5833, "dummy_word_5834": 5834, "dummy_word_5835": 5835, "dummy_word_5836": 5836, "dummy_word_5837": 5837, "dummy_word_5838": 5838, "dummy_word_5839": 5839, "dummy_word_5840": 5840, "dummy_word_5841": 5841, "dummy_word_5842": 5842, "dummy_word_5843": 5843, "dummy_word_5844": 5844, "dummy_word_5845": 5845, "dummy_word_5846": 5846, "dummy_word_5847": 5847, "dummy_word_5848": 5848, "dummy_word_5849": 5849, "dummy_word_5850": 5850, "dummy_word_5851": 5851, "dummy_word_5852": 5852, "dummy_word_5853": 5853, "dummy_word_5854": 5854, "dummy_word_5855": 5855, "dummy_word_5856": 5856, "dummy_word_5857": 5857, "dummy_word_5858": 5858, "dummy_word_5859": 5859, "dummy_word_5860": 5860, "dummy_word_5861": 5861, "dummy_word_5862": 5862, "dummy_word_5863": 5863, "dummy_word_5864": 5864, "dummy_word_5865": 5865, "dummy_word_5866": 5866, "dummy_word_5867": 5867, "dummy_word_5868": 5868, "dummy_word_5869": 5869, "dummy_word_5870": 5870, "dummy_word_5871": 5871, "dummy_word_5872": 5872, "dummy_word_5873": 5873, "dummy_word_5874": 5874, "dummy_word_5875": 5875, "dummy_word_5876": 5876, "dummy_word_5877": 5877, "dummy_word_5878": 5878, "dummy_word_5879": 5879, "dummy_word_5880": 5880, "dummy_word_5881": 5881, "dummy_word_5882": 5882, "dummy_word_5883": 5883, "dummy_word_5884": 5884, "dummy_word_5885": 5885, "dummy_word_5886": 5886, "dummy_word_5887": 5887, "dummy_word_5888": 5888, "dummy_word_5889": 5889, "dummy_word_5890": 5890, "dummy_word_5891": 5891, "dummy_word_5892": 5892, "dummy_word_5893": 5893, "dummy_word_5894": 5894, "dummy_word_5895": 5895, "dummy_word_5896": 5896, "dummy_word_5897": 5897, "dummy_word_5898": 5898, "dummy_word_5899": 5899, "dummy_word_5900": 5900, "dummy_word_5901": 5901, "dummy_word_5902": 5902, "dummy_word_5903": 5903, "dummy_word_5904": 5904, "dummy_word_5905": 5905, "dummy_word_5906": 5906, "dummy_word_5907": 5907, "dummy_word_5908": 5908, "dummy_word_5909": 5909, "dummy_word_5910": 5910, "dummy_word_5911": 5911, "dummy_word_5912": 5912, "dummy_word_5913": 5913, "dummy_word_5914": 5914, "dummy_word_5915": 5915, "dummy_word_5916": 5916, "dummy_word_5917": 5917, "dummy_word_5918": 5918, "dummy_word_5919": 5919, "dummy_word_5920": 5920, "dummy_word_5921": 5921, "dummy_word_5922": 5922, "dummy_word_5923": 5923, "dummy_word_5924": 5924, "dummy_word_5925": 5925, "dummy_word_5926": 5926, "dummy_word_5927": 5927, "dummy_word_5928": 5928, "dummy_word_5929": 5929, "dummy_word_5930": 5930, "dummy_word_5931": 5931, "dummy_word_5932": 5932, "dummy_word_5933": 5933, "dummy_word_5934": 5934, "dummy_word_5935": 5935, "dummy_word_5936": 5936, "dummy_word_5937": 5937, "dummy_word_5938": 5938, "dummy_word_5939": 5939, "dummy_word_5940": 5940, "dummy_word_5941": 5941, "dummy_word_5942": 5942, "dummy_word_5943": 5943, "dummy_word_5944": 5944, "dummy_word_5945": 5945, "dummy_word_5946": 5946, "dummy_word_5947": 5947, "dummy_word_5948": 5948, "dummy_word_5949": 5949, "dummy_word_5950": 5950, "dummy_word_5951": 5951, "dummy_word_5952": 5952, "dummy_word_5953": 5953, "dummy_word_5954": 5954, "dummy_word_5955": 5955, "dummy_word_5956": 5956, "dummy_word_5957": 5957, "dummy_word_5958": 5958, "dummy_word_5959": 5959, "dummy_word_5960": 5960, "dummy_word_5961": 5961, "dummy_word_5962": 5962, "dummy_word_5963": 5963, "dummy_word_5964": 5964, "dummy_word_5965": 5965, "dummy_word_5966": 5966, "dummy_word_5967": 5967, "dummy_word_5968": 5968, "dummy_word_5969": 5969, "dummy_word_5970": 5970, "dummy_word_5971": 5971, "dummy_word_5972": 5972, "dummy_word_5973": 5973, "dummy_word_5974": 5974, "dummy_word_5975": 5975, "dummy_word_5976": 5976, "dummy_word_5977": 5977, "dummy_word_5978": 5978, "dummy_word_5979": 5979, "dummy_word_5980": 5980, "dummy_word_5981": 5981, "dummy_word_5982": 5982, "dummy_word_5983": 5983, "dummy_word_5984": 5984, "dummy_word_5985": 5985, "dummy_word_5986": 5986, "dummy_word_5987": 5987, "dummy_word_5988": 5988, "dummy_word_5989": 5989, "dummy_word_5990": 5990, "dummy_word_5991": 5991, "dummy_word_5992": 5992, "dummy_word_5993": 5993, "dummy_word_5994": 5994, "dummy_word_5995": 5995, "dummy_word_5996": 5996, "dummy_word_5997": 5997, "dummy_word_5998": 5998, "dummy_word_5999": 5999, "dummy_word_6000": 6000, "dummy_word_6001": 6001, "dummy_word_6002": 6002, "dummy_word_6003": 6003, "dummy_word_6004": 6004, "dummy_word_6005": 6005, "dummy_word_6006": 6006, "dummy_word_6007": 6007, "dummy_word_6008": 6008, "dummy_word_6009": 6009, "dummy_word_6010": 6010, "dummy_word_6011": 6011, "dummy_word_6012": 6012, "dummy_word_6013": 6013, "dummy_word_6014": 6014, "dummy_word_6015": 6015, "dummy_word_6016": 6016, "dummy_word_6017": 6017, "dummy_word_6018": 6018, "dummy_word_6019": 6019, "dummy_word_6020": 6020, "dummy_word_6021": 6021, "dummy_word_6022": 6022, "dummy_word_6023": 6023, "dummy_word_6024": 6024, "dummy_word_6025": 6025, "dummy_word_6026": 6026, "dummy_word_6027": 6027, "dummy_word_6028": 6028, "dummy_word_6029": 6029, "dummy_word_6030": 6030, "dummy_word_6031": 6031, "dummy_word_6032": 6032, "dummy_word_6033": 6033, "dummy_word_6034": 6034, "dummy_word_6035": 6035, "dummy_word_6036": 6036, "dummy_word_6037": 6037, "dummy_word_6038": 6038, "dummy_word_6039": 6039, "dummy_word_6040": 6040, "dummy_word_6041": 6041, "dummy_word_6042": 6042, "dummy_word_6043": 6043, "dummy_word_6044": 6044, "dummy_word_6045": 6045, "dummy_word_6046": 6046, "dummy_word_6047": 6047, "dummy_word_6048": 6048, "dummy_word_6049": 6049, "dummy_word_6050": 6050, "dummy_word_6051": 6051, "dummy_word_6052": 6052, "dummy_word_6053": 6053, "dummy_word_6054": 6054, "dummy_word_6055": 6055, "dummy_word_6056": 6056, "dummy_word_6057": 6057, "dummy_word_6058": 6058, "dummy_word_6059": 6059, "dummy_word_6060": 6060, "dummy_word_6061": 6061, "dummy_word_6062": 6062, "dummy_word_6063": 6063, "dummy_word_6064": 6064, "dummy_word_6065": 6065, "dummy_word_6066": 6066, "dummy_word_6067": 6067, "dummy_word_6068": 6068, "dummy_word_6069": 6069, "dummy_word_6070": 6070, "dummy_word_6071": 6071, "dummy_word_6072": 6072, "dummy_word_6073": 6073, "dummy_word_6074": 6074, "dummy_word_6075": 6075, "dummy_word_6076": 6076, "dummy_word_6077": 6077, "dummy_word_6078": 6078, "dummy_word_6079": 6079, "dummy_word_6080": 6080, "dummy_word_6081": 6081, "dummy_word_6082": 6082, "dummy_word_6083": 6083, "dummy_word_6084": 6084, "dummy_word_6085": 6085, "dummy_word_6086": 6086, "dummy_word_6087": 6087, "dummy_word_6088": 6088, "dummy_word_6089": 6089, "dummy_word_6090": 6090, "dummy_word_6091": 6091, "dummy_word_6092": 6092, "dummy_word_6093": 6093, "dummy_word_6094": 6094, "dummy_word_6095": 6095, "dummy_word_6096": 6096, "dummy_word_6097": 6097, "dummy_word_6098": 6098, "dummy_word_6099": 6099, "dummy_word_6100": 6100, "dummy_word_6101": 6101, "dummy_word_6102": 6102, "dummy_word_6103": 6103, "dummy_word_6104": 6104, "dummy_word_6105": 6105, "dummy_word_6106": 6106, "dummy_word_6107": 6107, "dummy_word_6108": 6108, "dummy_word_6109": 6109, "dummy_word_6110": 6110, "dummy_word_6111": 6111, "dummy_word_6112": 6112, "dummy_word_6113": 6113, "dummy_word_6114": 6114, "dummy_word_6115": 6115, "dummy_word_6116": 6116, "dummy_word_6117": 6117, "dummy_word_6118": 6118, "dummy_word_6119": 6119, "dummy_word_6120": 6120, "dummy_word_6121": 6121, "dummy_word_6122": 6122, "dummy_word_6123": 6123, "dummy_word_6124": 6124, "dummy_word_6125": 6125, "dummy_word_6126": 6126, "dummy_word_6127": 6127, "dummy_word_6128": 6128, "dummy_word_6129": 6129, "dummy_word_6130": 6130, "dummy_word_6131": 6131, "dummy_word_6132": 6132, "dummy_word_6133": 6133, "dummy_word_6134": 6134, "dummy_word_6135": 6135, "dummy_word_6136": 6136, "dummy_word_6137": 6137, "dummy_word_6138": 6138, "dummy_word_6139": 6139, "dummy_word_6140": 6140, "dummy_word_6141": 6141, "dummy_word_6142": 6142, "dummy_word_6143": 6143, "dummy_word_6144": 6144, "dummy_word_6145": 6145, "dummy_word_6146": 6146, "dummy_word_6147": 6147, "dummy_word_6148": 6148, "dummy_word_6149": 6149, "dummy_word_6150": 6150, "dummy_word_6151": 6151, "dummy_word_6152": 6152, "dummy_word_6153": 6153, "dummy_word_6154": 6154, "dummy_word_6155": 6155, "dummy_word_6156": 6156, "dummy_word_6157": 6157, "dummy_word_6158": 6158, "dummy_word_6159": 6159, "dummy_word_6160": 6160, "dummy_word_6161": 6161, "dummy_word_6162": 6162, "dummy_word_6163": 6163, "dummy_word_6164": 6164, "dummy_word_6165": 6165, "dummy_word_6166": 6166, "dummy_word_6167": 6167, "dummy_word_6168": 6168, "dummy_word_6169": 6169, "dummy_word_6170": 6170, "dummy_word_6171": 6171, "dummy_word_6172": 6172, "dummy_word_6173": 6173, "dummy_word_6174": 6174, "dummy_word_6175": 6175, "dummy_word_6176": 6176, "dummy_word_6177": 6177, "dummy_word_6178": 6178, "dummy_word_6179": 6179, "dummy_word_6180": 6180, "dummy_word_6181": 6181, "dummy_word_6182": 6182, "dummy_word_6183": 6183, "dummy_word_6184": 6184, "dummy_word_6185": 6185, "dummy_word_6186": 6186, "dummy_word_6187": 6187, "dummy_word_6188": 6188, "dummy_word_6189": 6189, "dummy_word_6190": 6190, "dummy_word_6191": 6191, "dummy_word_6192": 6192, "dummy_word_6193": 6193, "dummy_word_6194": 6194, "dummy_word_6195": 6195, "dummy_word_6196": 6196, "dummy_word_6197": 6197, "dummy_word_6198": 6198, "dummy_word_6199": 6199, "dummy_word_6200": 6200, "dummy_word_6201": 6201, "dummy_word_6202": 6202, "dummy_word_6203": 6203, "dummy_word_6204": 6204, "dummy_word_6205": 6205, "dummy_word_6206": 6206, "dummy_word_6207": 6207, "dummy_word_6208": 6208, "dummy_word_6209": 6209, "dummy_word_6210": 6210, "dummy_word_6211": 6211, "dummy_word_6212": 6212, "dummy_word_6213": 6213, "dummy_word_6214": 6214, "dummy_word_6215": 6215, "dummy_word_6216": 6216, "dummy_word_6217": 6217, "dummy_word_6218": 6218, "dummy_word_6219": 6219, "dummy_word_6220": 6220, "dummy_word_6221": 6221, "dummy_word_6222": 6222, "dummy_word_6223": 6223, "dummy_word_6224": 6224, "dummy_word_6225": 6225, "dummy_word_6226": 6226, "dummy_word_6227": 6227, "dummy_word_6228": 6228, "dummy_word_6229": 6229, "dummy_word_6230": 6230, "dummy_word_6231": 6231, "dummy_word_6232": 6232, "dummy_word_6233": 6233, "dummy_word_6234": 6234, "dummy_word_6235": 6235, "dummy_word_6236": 6236, "dummy_word_6237": 6237, "dummy_word_6238": 6238, "dummy_word_6239": 6239, "dummy_word_6240": 6240, "dummy_word_6241": 6241, "dummy_word_6242": 6242, "dummy_word_6243": 6243, "dummy_word_6244": 6244, "dummy_word_6245": 6245, "dummy_word_6246": 6246, "dummy_word_6247": 6247, "dummy_word_6248": 6248, "dummy_word_6249": 6249, "dummy_word_6250": 6250, "dummy_word_6251": 6251, "dummy_word_6252": 6252, "dummy_word_6253": 6253, "dummy_word_6254": 6254, "dummy_word_6255": 6255, "dummy_word_6256": 6256, "dummy_word_6257": 6257, "dummy_word_6258": 6258, "dummy_word_6259": 6259, "dummy_word_6260": 6260, "dummy_word_6261": 6261, "dummy_word_6262": 6262, "dummy_word_6263": 6263, "dummy_word_6264": 6264, "dummy_word_6265": 6265, "dummy_word_6266": 6266, "dummy_word_6267": 6267, "dummy_word_6268": 6268, "dummy_word_6269": 6269, "dummy_word_6270": 6270, "dummy_word_6271": 6271, "dummy_word_6272": 6272, "dummy_word_6273": 6273, "dummy_word_6274": 6274, "dummy_word_6275": 6275, "dummy_word_6276": 6276, "dummy_word_6277": 6277, "dummy_word_6278": 6278, "dummy_word_6279": 6279, "dummy_word_6280": 6280, "dummy_word_6281": 6281, "dummy_word_6282": 6282, "dummy_word_6283": 6283, "dummy_word_6284": 6284, "dummy_word_6285": 6285, "dummy_word_6286": 6286, "dummy_word_6287": 6287, "dummy_word_6288": 6288, "dummy_word_6289": 6289, "dummy_word_6290": 6290, "dummy_word_6291": 6291, "dummy_word_6292": 6292, "dummy_word_6293": 6293, "dummy_word_6294": 6294, "dummy_word_6295": 6295, "dummy_word_6296": 6296, "dummy_word_6297": 6297, "dummy_word_6298": 6298, "dummy_word_6299": 6299, "dummy_word_6300": 6300, "dummy_word_6301": 6301, "dummy_word_6302": 6302, "dummy_word_6303": 6303, "dummy_word_6304": 6304, "dummy_word_6305": 6305, "dummy_word_6306": 6306, "dummy_word_6307": 6307, "dummy_word_6308": 6308, "dummy_word_6309": 6309, "dummy_word_6310": 6310, "dummy_word_6311": 6311, "dummy_word_6312": 6312, "dummy_word_6313": 6313, "dummy_word_6314": 6314, "dummy_word_6315": 6315, "dummy_word_6316": 6316, "dummy_word_6317": 6317, "dummy_word_6318": 6318, "dummy_word_6319": 6319, "dummy_word_6320": 6320, "dummy_word_6321": 6321, "dummy_word_6322": 6322, "dummy_word_6323": 6323, "dummy_word_6324": 6324, "dummy_word_6325": 6325, "dummy_word_6326": 6326, "dummy_word_6327": 6327, "dummy_word_6328": 6328, "dummy_word_6329": 6329, "dummy_word_6330": 6330, "dummy_word_6331": 6331, "dummy_word_6332": 6332, "dummy_word_6333": 6333, "dummy_word_6334": 6334, "dummy_word_6335": 6335, "dummy_word_6336": 6336, "dummy_word_6337": 6337, "dummy_word_6338": 6338, "dummy_word_6339": 6339, "dummy_word_6340": 6340, "dummy_word_6341": 6341, "dummy_word_6342": 6342, "dummy_word_6343": 6343, "dummy_word_6344": 6344, "dummy_word_6345": 6345, "dummy_word_6346": 6346, "dummy_word_6347": 6347, "dummy_word_6348": 6348, "dummy_word_6349": 6349, "dummy_word_6350": 6350, "dummy_word_6351": 6351, "dummy_word_6352": 6352, "dummy_word_6353": 6353, "dummy_word_6354": 6354, "dummy_word_6355": 6355, "dummy_word_6356": 6356, "dummy_word_6357": 6357, "dummy_word_6358": 6358, "dummy_word_6359": 6359, "dummy_word_6360": 6360, "dummy_word_6361": 6361, "dummy_word_6362": 6362, "dummy_word_6363": 6363, "dummy_word_6364": 6364, "dummy_word_6365": 6365, "dummy_word_6366": 6366, "dummy_word_6367": 6367, "dummy_word_6368": 6368, "dummy_word_6369": 6369, "dummy_word_6370": 6370, "dummy_word_6371": 6371, "dummy_word_6372": 6372, "dummy_word_6373": 6373, "dummy_word_6374": 6374, "dummy_word_6375": 6375, "dummy_word_6376": 6376, "dummy_word_6377": 6377, "dummy_word_6378": 6378, "dummy_word_6379": 6379, "dummy_word_6380": 6380, "dummy_word_6381": 6381, "dummy_word_6382": 6382, "dummy_word_6383": 6383, "dummy_word_6384": 6384, "dummy_word_6385": 6385, "dummy_word_6386": 6386, "dummy_word_6387": 6387, "dummy_word_6388": 6388, "dummy_word_6389": 6389, "dummy_word_6390": 6390, "dummy_word_6391": 6391, "dummy_word_6392": 6392, "dummy_word_6393": 6393, "dummy_word_6394": 6394, "dummy_word_6395": 6395, "dummy_word_6396": 6396, "dummy_word_6397": 6397, "dummy_word_6398": 6398, "dummy_word_6399": 6399, "dummy_word_6400": 6400, "dummy_word_6401": 6401, "dummy_word_6402": 6402, "dummy_word_6403": 6403, "dummy_word_6404": 6404, "dummy_word_6405": 6405, "dummy_word_6406": 6406, "dummy_word_6407": 6407, "dummy_word_6408": 6408, "dummy_word_6409": 6409, "dummy_word_6410": 6410, "dummy_word_6411": 6411, "dummy_word_6412": 6412, "dummy_word_6413": 6413, "dummy_word_6414": 6414, "dummy_word_6415": 6415, "dummy_word_6416": 6416, "dummy_word_6417": 6417, "dummy_word_6418": 6418, "dummy_word_6419": 6419, "dummy_word_6420": 6420, "dummy_word_6421": 6421, "dummy_word_6422": 6422, "dummy_word_6423": 6423, "dummy_word_6424": 6424, "dummy_word_6425": 6425, "dummy_word_6426": 6426, "dummy_word_6427": 6427, "dummy_word_6428": 6428, "dummy_word_6429": 6429, "dummy_word_6430": 6430, "dummy_word_6431": 6431, "dummy_word_6432": 6432, "dummy_word_6433": 6433, "dummy_word_6434": 6434, "dummy_word_6435": 6435, "dummy_word_6436": 6436, "dummy_word_6437": 6437, "dummy_word_6438": 6438, "dummy_word_6439": 6439, "dummy_word_6440": 6440, "dummy_word_6441": 6441, "dummy_word_6442": 6442, "dummy_word_6443": 6443, "dummy_word_6444": 6444, "dummy_word_6445": 6445, "dummy_word_6446": 6446, "dummy_word_6447": 6447, "dummy_word_6448": 6448, "dummy_word_6449": 6449, "dummy_word_6450": 6450, "dummy_word_6451": 6451, "dummy_word_6452": 6452, "dummy_word_6453": 6453, "dummy_word_6454": 6454, "dummy_word_6455": 6455, "dummy_word_6456": 6456, "dummy_word_6457": 6457, "dummy_word_6458": 6458, "dummy_word_6459": 6459, "dummy_word_6460": 6460, "dummy_word_6461": 6461, "dummy_word_6462": 6462, "dummy_word_6463": 6463, "dummy_word_6464": 6464, "dummy_word_6465": 6465, "dummy_word_6466": 6466, "dummy_word_6467": 6467, "dummy_word_6468": 6468, "dummy_word_6469": 6469, "dummy_word_6470": 6470, "dummy_word_6471": 6471, "dummy_word_6472": 6472, "dummy_word_6473": 6473, "dummy_word_6474": 6474, "dummy_word_6475": 6475, "dummy_word_6476": 6476, "dummy_word_6477": 6477, "dummy_word_6478": 6478, "dummy_word_6479": 6479, "dummy_word_6480": 6480, "dummy_word_6481": 6481, "dummy_word_6482": 6482, "dummy_word_6483": 6483, "dummy_word_6484": 6484, "dummy_word_6485": 6485, "dummy_word_6486": 6486, "dummy_word_6487": 6487, "dummy_word_6488": 6488, "dummy_word_6489": 6489, "dummy_word_6490": 6490, "dummy_word_6491": 6491, "dummy_word_6492": 6492, "dummy_word_6493": 6493, "dummy_word_6494": 6494, "dummy_word_6495": 6495, "dummy_word_6496": 6496, "dummy_word_6497": 6497, "dummy_word_6498": 6498, "dummy_word_6499": 6499, "dummy_word_6500": 6500, "dummy_word_6501": 6501, "dummy_word_6502": 6502, "dummy_word_6503": 6503, "dummy_word_6504": 6504, "dummy_word_6505": 6505, "dummy_word_6506": 6506, "dummy_word_6507": 6507, "dummy_word_6508": 6508, "dummy_word_6509": 6509, "dummy_word_6510": 6510, "dummy_word_6511": 6511, "dummy_word_6512": 6512, "dummy_word_6513": 6513, "dummy_word_6514": 6514, "dummy_word_6515": 6515, "dummy_word_6516": 6516, "dummy_word_6517": 6517, "dummy_word_6518": 6518, "dummy_word_6519": 6519, "dummy_word_6520": 6520, "dummy_word_6521": 6521, "dummy_word_6522": 6522, "dummy_word_6523": 6523, "dummy_word_6524": 6524, "dummy_word_6525": 6525, "dummy_word_6526": 6526, "dummy_word_6527": 6527, "dummy_word_6528": 6528, "dummy_word_6529": 6529, "dummy_word_6530": 6530, "dummy_word_6531": 6531, "dummy_word_6532": 6532, "dummy_word_6533": 6533, "dummy_word_6534": 6534, "dummy_word_6535": 6535, "dummy_word_6536": 6536, "dummy_word_6537": 6537, "dummy_word_6538": 6538, "dummy_word_6539": 6539, "dummy_word_6540": 6540, "dummy_word_6541": 6541, "dummy_word_6542": 6542, "dummy_word_6543": 6543, "dummy_word_6544": 6544, "dummy_word_6545": 6545, "dummy_word_6546": 6546, "dummy_word_6547": 6547, "dummy_word_6548": 6548, "dummy_word_6549": 6549, "dummy_word_6550": 6550, "dummy_word_6551": 6551, "dummy_word_6552": 6552, "dummy_word_6553": 6553, "dummy_word_6554": 6554, "dummy_word_6555": 6555, "dummy_word_6556": 6556, "dummy_word_6557": 6557, "dummy_word_6558": 6558, "dummy_word_6559": 6559, "dummy_word_6560": 6560, "dummy_word_6561": 6561, "dummy_word_6562": 6562, "dummy_word_6563": 6563, "dummy_word_6564": 6564, "dummy_word_6565": 6565, "dummy_word_6566": 6566, "dummy_word_6567": 6567, "dummy_word_6568": 6568, "dummy_word_6569": 6569, "dummy_word_6570": 6570, "dummy_word_6571": 6571, "dummy_word_6572": 6572, "dummy_word_6573": 6573, "dummy_word_6574": 6574, "dummy_word_6575": 6575, "dummy_word_6576": 6576, "dummy_word_6577": 6577, "dummy_word_6578": 6578, "dummy_word_6579": 6579, "dummy_word_6580": 6580, "dummy_word_6581": 6581, "dummy_word_6582": 6582, "dummy_word_6583": 6583, "dummy_word_6584": 6584, "dummy_word_6585": 6585, "dummy_word_6586": 6586, "dummy_word_6587": 6587, "dummy_word_6588": 6588, "dummy_word_6589": 6589, "dummy_word_6590": 6590, "dummy_word_6591": 6591, "dummy_word_6592": 6592, "dummy_word_6593": 6593, "dummy_word_6594": 6594, "dummy_word_6595": 6595, "dummy_word_6596": 6596, "dummy_word_6597": 6597, "dummy_word_6598": 6598, "dummy_word_6599": 6599, "dummy_word_6600": 6600, "dummy_word_6601": 6601, "dummy_word_6602": 6602, "dummy_word_6603": 6603, "dummy_word_6604": 6604, "dummy_word_6605": 6605, "dummy_word_6606": 6606, "dummy_word_6607": 6607, "dummy_word_6608": 6608, "dummy_word_6609": 6609, "dummy_word_6610": 6610, "dummy_word_6611": 6611, "dummy_word_6612": 6612, "dummy_word_6613": 6613, "dummy_word_6614": 6614, "dummy_word_6615": 6615, "dummy_word_6616": 6616, "dummy_word_6617": 6617, "dummy_word_6618": 6618, "dummy_word_6619": 6619, "dummy_word_6620": 6620, "dummy_word_6621": 6621, "dummy_word_6622": 6622, "dummy_word_6623": 6623, "dummy_word_6624": 6624, "dummy_word_6625": 6625, "dummy_word_6626": 6626, "dummy_word_6627": 6627, "dummy_word_6628": 6628, "dummy_word_6629": 6629, "dummy_word_6630": 6630, "dummy_word_6631": 6631, "dummy_word_6632": 6632, "dummy_word_6633": 6633, "dummy_word_6634": 6634, "dummy_word_6635": 6635, "dummy_word_6636": 6636, "dummy_word_6637": 6637, "dummy_word_6638": 6638, "dummy_word_6639": 6639, "dummy_word_6640": 6640, "dummy_word_6641": 6641, "dummy_word_6642": 6642, "dummy_word_6643": 6643, "dummy_word_6644": 6644, "dummy_word_6645": 6645, "dummy_word_6646": 6646, "dummy_word_6647": 6647, "dummy_word_6648": 6648, "dummy_word_6649": 6649, "dummy_word_6650": 6650, "dummy_word_6651": 6651, "dummy_word_6652": 6652, "dummy_word_6653": 6653, "dummy_word_6654": 6654, "dummy_word_6655": 6655, "dummy_word_6656": 6656, "dummy_word_6657": 6657, "dummy_word_6658": 6658, "dummy_word_6659": 6659, "dummy_word_6660": 6660, "dummy_word_6661": 6661, "dummy_word_6662": 6662, "dummy_word_6663": 6663, "dummy_word_6664": 6664, "dummy_word_6665": 6665, "dummy_word_6666": 6666, "dummy_word_6667": 6667, "dummy_word_6668": 6668, "dummy_word_6669": 6669, "dummy_word_6670": 6670, "dummy_word_6671": 6671, "dummy_word_6672": 6672, "dummy_word_6673": 6673, "dummy_word_6674": 6674, "dummy_word_6675": 6675, "dummy_word_6676": 6676, "dummy_word_6677": 6677, "dummy_word_6678": 6678, "dummy_word_6679": 6679, "dummy_word_6680": 6680, "dummy_word_6681": 6681, "dummy_word_6682": 6682, "dummy_word_6683": 6683, "dummy_word_6684": 6684, "dummy_word_6685": 6685, "dummy_word_6686": 6686, "dummy_word_6687": 6687, "dummy_word_6688": 6688, "dummy_word_6689": 6689, "dummy_word_6690": 6690, "dummy_word_6691": 6691, "dummy_word_6692": 6692, "dummy_word_6693": 6693, "dummy_word_6694": 6694, "dummy_word_6695": 6695, "dummy_word_6696": 6696, "dummy_word_6697": 6697, "dummy_word_6698": 6698, "dummy_word_6699": 6699, "dummy_word_6700": 6700, "dummy_word_6701": 6701, "dummy_word_6702": 6702, "dummy_word_6703": 6703, "dummy_word_6704": 6704, "dummy_word_6705": 6705, "dummy_word_6706": 6706, "dummy_word_6707": 6707, "dummy_word_6708": 6708, "dummy_word_6709": 6709, "dummy_word_6710": 6710, "dummy_word_6711": 6711, "dummy_word_6712": 6712, "dummy_word_6713": 6713, "dummy_word_6714": 6714, "dummy_word_6715": 6715, "dummy_word_6716": 6716, "dummy_word_6717": 6717, "dummy_word_6718": 6718, "dummy_word_6719": 6719, "dummy_word_6720": 6720, "dummy_word_6721": 6721, "dummy_word_6722": 6722, "dummy_word_6723": 6723, "dummy_word_6724": 6724, "dummy_word_6725": 6725, "dummy_word_6726": 6726, "dummy_word_6727": 6727, "dummy_word_6728": 6728, "dummy_word_6729": 6729, "dummy_word_6730": 6730, "dummy_word_6731": 6731, "dummy_word_6732": 6732, "dummy_word_6733": 6733, "dummy_word_6734": 6734, "dummy_word_6735": 6735, "dummy_word_6736": 6736, "dummy_word_6737": 6737, "dummy_word_6738": 6738, "dummy_word_6739": 6739, "dummy_word_6740": 6740, "dummy_word_6741": 6741, "dummy_word_6742": 6742, "dummy_word_6743": 6743, "dummy_word_6744": 6744, "dummy_word_6745": 6745, "dummy_word_6746": 6746, "dummy_word_6747": 6747, "dummy_word_6748": 6748, "dummy_word_6749": 6749, "dummy_word_6750": 6750, "dummy_word_6751": 6751, "dummy_word_6752": 6752, "dummy_word_6753": 6753, "dummy_word_6754": 6754, "dummy_word_6755": 6755, "dummy_word_6756": 6756, "dummy_word_6757": 6757, "dummy_word_6758": 6758, "dummy_word_6759": 6759, "dummy_word_6760": 6760, "dummy_word_6761": 6761, "dummy_word_6762": 6762, "dummy_word_6763": 6763, "dummy_word_6764": 6764, "dummy_word_6765": 6765, "dummy_word_6766": 6766, "dummy_word_6767": 6767, "dummy_word_6768": 6768, "dummy_word_6769": 6769, "dummy_word_6770": 6770, "dummy_word_6771": 6771, "dummy_word_6772": 6772, "dummy_word_6773": 6773, "dummy_word_6774": 6774, "dummy_word_6775": 6775, "dummy_word_6776": 6776, "dummy_word_6777": 6777, "dummy_word_6778": 6778, "dummy_word_6779": 6779, "dummy_word_6780": 6780, "dummy_word_6781": 6781, "dummy_word_6782": 6782, "dummy_word_6783": 6783, "dummy_word_6784": 6784, "dummy_word_6785": 6785, "dummy_word_6786": 6786, "dummy_word_6787": 6787, "dummy_word_6788": 6788, "dummy_word_6789": 6789, "dummy_word_6790": 6790, "dummy_word_6791": 6791, "dummy_word_6792": 6792, "dummy_word_6793": 6793, "dummy_word_6794": 6794, "dummy_word_6795": 6795, "dummy_word_6796": 6796, "dummy_word_6797": 6797, "dummy_word_6798": 6798, "dummy_word_6799": 6799, "dummy_word_6800": 6800, "dummy_word_6801": 6801, "dummy_word_6802": 6802, "dummy_word_6803": 6803, "dummy_word_6804": 6804, "dummy_word_6805": 6805, "dummy_word_6806": 6806, "dummy_word_6807": 6807, "dummy_word_6808": 6808, "dummy_word_6809": 6809, "dummy_word_6810": 6810, "dummy_word_6811": 6811, "dummy_word_6812": 6812, "dummy_word_6813": 6813, "dummy_word_6814": 6814, "dummy_word_6815": 6815, "dummy_word_6816": 6816, "dummy_word_6817": 6817, "dummy_word_6818": 6818, "dummy_word_6819": 6819, "dummy_word_6820": 6820, "dummy_word_6821": 6821, "dummy_word_6822": 6822, "dummy_word_6823": 6823, "dummy_word_6824": 6824, "dummy_word_6825": 6825, "dummy_word_6826": 6826, "dummy_word_6827": 6827, "dummy_word_6828": 6828, "dummy_word_6829": 6829, "dummy_word_6830": 6830, "dummy_word_6831": 6831, "dummy_word_6832": 6832, "dummy_word_6833": 6833, "dummy_word_6834": 6834, "dummy_word_6835": 6835, "dummy_word_6836": 6836, "dummy_word_6837": 6837, "dummy_word_6838": 6838, "dummy_word_6839": 6839, "dummy_word_6840": 6840, "dummy_word_6841": 6841, "dummy_word_6842": 6842, "dummy_word_6843": 6843, "dummy_word_6844": 6844, "dummy_word_6845": 6845, "dummy_word_6846": 6846, "dummy_word_6847": 6847, "dummy_word_6848": 6848, "dummy_word_6849": 6849, "dummy_word_6850": 6850, "dummy_word_6851": 6851, "dummy_word_6852": 6852, "dummy_word_6853": 6853, "dummy_word_6854": 6854, "dummy_word_6855": 6855, "dummy_word_6856": 6856, "dummy_word_6857": 6857, "dummy_word_6858": 6858, "dummy_word_6859": 6859, "dummy_word_6860": 6860, "dummy_word_6861": 6861, "dummy_word_6862": 6862, "dummy_word_6863": 6863, "dummy_word_6864": 6864, "dummy_word_6865": 6865, "dummy_word_6866": 6866, "dummy_word_6867": 6867, "dummy_word_6868": 6868, "dummy_word_6869": 6869, "dummy_word_6870": 6870, "dummy_word_6871": 6871, "dummy_word_6872": 6872, "dummy_word_6873": 6873, "dummy_word_6874": 6874, "dummy_word_6875": 6875, "dummy_word_6876": 6876, "dummy_word_6877": 6877, "dummy_word_6878": 6878, "dummy_word_6879": 6879, "dummy_word_6880": 6880, "dummy_word_6881": 6881, "dummy_word_6882": 6882, "dummy_word_6883": 6883, "dummy_word_6884": 6884, "dummy_word_6885": 6885, "dummy_word_6886": 6886, "dummy_word_6887": 6887, "dummy_word_6888": 6888, "dummy_word_6889": 6889, "dummy_word_6890": 6890, "dummy_word_6891": 6891, "dummy_word_6892": 6892, "dummy_word_6893": 6893, "dummy_word_6894": 6894, "dummy_word_6895": 6895, "dummy_word_6896": 6896, "dummy_word_6897": 6897, "dummy_word_6898": 6898, "dummy_word_6899": 6899, "dummy_word_6900": 6900, "dummy_word_6901": 6901, "dummy_word_6902": 6902, "dummy_word_6903": 6903, "dummy_word_6904": 6904, "dummy_word_6905": 6905, "dummy_word_6906": 6906, "dummy_word_6907": 6907, "dummy_word_6908": 6908, "dummy_word_6909": 6909, "dummy_word_6910": 6910, "dummy_word_6911": 6911, "dummy_word_6912": 6912, "dummy_word_6913": 6913, "dummy_word_6914": 6914, "dummy_word_6915": 6915, "dummy_word_6916": 6916, "dummy_word_6917": 6917, "dummy_word_6918": 6918, "dummy_word_6919": 6919, "dummy_word_6920": 6920, "dummy_word_6921": 6921, "dummy_word_6922": 6922, "dummy_word_6923": 6923, "dummy_word_6924": 6924, "dummy_word_6925": 6925, "dummy_word_6926": 6926, "dummy_word_6927": 6927, "dummy_word_6928": 6928, "dummy_word_6929": 6929, "dummy_word_6930": 6930, "dummy_word_6931": 6931, "dummy_word_6932": 6932, "dummy_word_6933": 6933, "dummy_word_6934": 6934, "dummy_word_6935": 6935, "dummy_word_6936": 6936, "dummy_word_6937": 6937, "dummy_word_6938": 6938, "dummy_word_6939": 6939, "dummy_word_6940": 6940, "dummy_word_6941": 6941, "dummy_word_6942": 6942, "dummy_word_6943": 6943, "dummy_word_6944": 6944, "dummy_word_6945": 6945, "dummy_word_6946": 6946, "dummy_word_6947": 6947, "dummy_word_6948": 6948, "dummy_word_6949": 6949, "dummy_word_6950": 6950, "dummy_word_6951": 6951, "dummy_word_6952": 6952, "dummy_word_6953": 6953, "dummy_word_6954": 6954, "dummy_word_6955": 6955, "dummy_word_6956": 6956, "dummy_word_6957": 6957, "dummy_word_6958": 6958, "dummy_word_6959": 6959, "dummy_word_6960": 6960, "dummy_word_6961": 6961, "dummy_word_6962": 6962, "dummy_word_6963": 6963, "dummy_word_6964": 6964, "dummy_word_6965": 6965, "dummy_word_6966": 6966, "dummy_word_6967": 6967, "dummy_word_6968": 6968, "dummy_word_6969": 6969, "dummy_word_6970": 6970, "dummy_word_6971": 6971, "dummy_word_6972": 6972, "dummy_word_6973": 6973, "dummy_word_6974": 6974, "dummy_word_6975": 6975, "dummy_word_6976": 6976, "dummy_word_6977": 6977, "dummy_word_6978": 6978, "dummy_word_6979": 6979, "dummy_word_6980": 6980, "dummy_word_6981": 6981, "dummy_word_6982": 6982, "dummy_word_6983": 6983, "dummy_word_6984": 6984, "dummy_word_6985": 6985, "dummy_word_6986": 6986, "dummy_word_6987": 6987, "dummy_word_6988": 6988, "dummy_word_6989": 6989, "dummy_word_6990": 6990, "dummy_word_6991": 6991, "dummy_word_6992": 6992, "dummy_word_6993": 6993, "dummy_word_6994": 6994, "dummy_word_6995": 6995, "dummy_word_6996": 6996, "dummy_word_6997": 6997, "dummy_word_6998": 6998, "dummy_word_6999": 6999, "dummy_word_7000": 7000, "dummy_word_7001": 7001, "dummy_word_7002": 7002, "dummy_word_7003": 7003, "dummy_word_7004": 7004, "dummy_word_7005": 7005, "dummy_word_7006": 7006, "dummy_word_7007": 7007, "dummy_word_7008": 7008, "dummy_word_7009": 7009, "dummy_word_7010": 7010, "dummy_word_7011": 7011, "dummy_word_7012": 7012, "dummy_word_7013": 7013, "dummy_word_7014": 7014, "dummy_word_7015": 7015, "dummy_word_7016": 7016, "dummy_word_7017": 7017, "dummy_word_7018": 7018, "dummy_word_7019": 7019, "dummy_word_7020": 7020, "dummy_word_7021": 7021, "dummy_word_7022": 7022, "dummy_word_7023": 7023, "dummy_word_7024": 7024, "dummy_word_7025": 7025, "dummy_word_7026": 7026, "dummy_word_7027": 7027, "dummy_word_7028": 7028, "dummy_word_7029": 7029, "dummy_word_7030": 7030, "dummy_word_7031": 7031, "dummy_word_7032": 7032, "dummy_word_7033": 7033, "dummy_word_7034": 7034, "dummy_word_7035": 7035, "dummy_word_7036": 7036, "dummy_word_7037": 7037, "dummy_word_7038": 7038, "dummy_word_7039": 7039, "dummy_word_7040": 7040, "dummy_word_7041": 7041, "dummy_word_7042": 7042, "dummy_word_7043": 7043, "dummy_word_7044": 7044, "dummy_word_7045": 7045, "dummy_word_7046": 7046, "dummy_word_7047": 7047, "dummy_word_7048": 7048, "dummy_word_7049": 7049, "dummy_word_7050": 7050, "dummy_word_7051": 7051, "dummy_word_7052": 7052, "dummy_word_7053": 7053, "dummy_word_7054": 7054, "dummy_word_7055": 7055, "dummy_word_7056": 7056, "dummy_word_7057": 7057, "dummy_word_7058": 7058, "dummy_word_7059": 7059, "dummy_word_7060": 7060, "dummy_word_7061": 7061, "dummy_word_7062": 7062, "dummy_word_7063": 7063, "dummy_word_7064": 7064, "dummy_word_7065": 7065, "dummy_word_7066": 7066, "dummy_word_7067": 7067, "dummy_word_7068": 7068, "dummy_word_7069": 7069, "dummy_word_7070": 7070, "dummy_word_7071": 7071, "dummy_word_7072": 7072, "dummy_word_7073": 7073, "dummy_word_7074": 7074, "dummy_word_7075": 7075, "dummy_word_7076": 7076, "dummy_word_7077": 7077, "dummy_word_7078": 7078, "dummy_word_7079": 7079, "dummy_word_7080": 7080, "dummy_word_7081": 7081, "dummy_word_7082": 7082, "dummy_word_7083": 7083, "dummy_word_7084": 7084, "dummy_word_7085": 7085, "dummy_word_7086": 7086, "dummy_word_7087": 7087, "dummy_word_7088": 7088, "dummy_word_7089": 7089, "dummy_word_7090": 7090, "dummy_word_7091": 7091, "dummy_word_7092": 7092, "dummy_word_7093": 7093, "dummy_word_7094": 7094, "dummy_word_7095": 7095, "dummy_word_7096": 7096, "dummy_word_7097": 7097, "dummy_word_7098": 7098, "dummy_word_7099": 7099, "dummy_word_7100": 7100, "dummy_word_7101": 7101, "dummy_word_7102": 7102, "dummy_word_7103": 7103, "dummy_word_7104": 7104, "dummy_word_7105": 7105, "dummy_word_7106": 7106, "dummy_word_7107": 7107, "dummy_word_7108": 7108, "dummy_word_7109": 7109, "dummy_word_7110": 7110, "dummy_word_7111": 7111, "dummy_word_7112": 7112, "dummy_word_7113": 7113, "dummy_word_7114": 7114, "dummy_word_7115": 7115, "dummy_word_7116": 7116, "dummy_word_7117": 7117, "dummy_word_7118": 7118, "dummy_word_7119": 7119, "dummy_word_7120": 7120, "dummy_word_7121": 7121, "dummy_word_7122": 7122, "dummy_word_7123": 7123, "dummy_word_7124": 7124, "dummy_word_7125": 7125, "dummy_word_7126": 7126, "dummy_word_7127": 7127, "dummy_word_7128": 7128, "dummy_word_7129": 7129, "dummy_word_7130": 7130, "dummy_word_7131": 7131, "dummy_word_7132": 7132, "dummy_word_7133": 7133, "dummy_word_7134": 7134, "dummy_word_7135": 7135, "dummy_word_7136": 7136, "dummy_word_7137": 7137, "dummy_word_7138": 7138, "dummy_word_7139": 7139, "dummy_word_7140": 7140, "dummy_word_7141": 7141, "dummy_word_7142": 7142, "dummy_word_7143": 7143, "dummy_word_7144": 7144, "dummy_word_7145": 7145, "dummy_word_7146": 7146, "dummy_word_7147": 7147, "dummy_word_7148": 7148, "dummy_word_7149": 7149, "dummy_word_7150": 7150, "dummy_word_7151": 7151, "dummy_word_7152": 7152, "dummy_word_7153": 7153, "dummy_word_7154": 7154, "dummy_word_7155": 7155, "dummy_word_7156": 7156, "dummy_word_7157": 7157, "dummy_word_7158": 7158, "dummy_word_7159": 7159, "dummy_word_7160": 7160, "dummy_word_7161": 7161, "dummy_word_7162": 7162, "dummy_word_7163": 7163, "dummy_word_7164": 7164, "dummy_word_7165": 7165, "dummy_word_7166": 7166, "dummy_word_7167": 7167, "dummy_word_7168": 7168, "dummy_word_7169": 7169, "dummy_word_7170": 7170, "dummy_word_7171": 7171, "dummy_word_7172": 7172, "dummy_word_7173": 7173, "dummy_word_7174": 7174, "dummy_word_7175": 7175, "dummy_word_7176": 7176, "dummy_word_7177": 7177, "dummy_word_7178": 7178, "dummy_word_7179": 7179, "dummy_word_7180": 7180, "dummy_word_7181": 7181, "dummy_word_7182": 7182, "dummy_word_7183": 7183, "dummy_word_7184": 7184, "dummy_word_7185": 7185, "dummy_word_7186": 7186, "dummy_word_7187": 7187, "dummy_word_7188": 7188, "dummy_word_7189": 7189, "dummy_word_7190": 7190, "dummy_word_7191": 7191, "dummy_word_7192": 7192, "dummy_word_7193": 7193, "dummy_word_7194": 7194, "dummy_word_7195": 7195, "dummy_word_7196": 7196, "dummy_word_7197": 7197, "dummy_word_7198": 7198, "dummy_word_7199": 7199, "dummy_word_7200": 7200, "dummy_word_7201": 7201, "dummy_word_7202": 7202, "dummy_word_7203": 7203, "dummy_word_7204": 7204, "dummy_word_7205": 7205, "dummy_word_7206": 7206, "dummy_word_7207": 7207, "dummy_word_7208": 7208, "dummy_word_7209": 7209, "dummy_word_7210": 7210, "dummy_word_7211": 7211, "dummy_word_7212": 7212, "dummy_word_7213": 7213, "dummy_word_7214": 7214, "dummy_word_7215": 7215, "dummy_word_7216": 7216, "dummy_word_7217": 7217, "dummy_word_7218": 7218, "dummy_word_7219": 7219, "dummy_word_7220": 7220, "dummy_word_7221": 7221, "dummy_word_7222": 7222, "dummy_word_7223": 7223, "dummy_word_7224": 7224, "dummy_word_7225": 7225, "dummy_word_7226": 7226, "dummy_word_7227": 7227, "dummy_word_7228": 7228, "dummy_word_7229": 7229, "dummy_word_7230": 7230, "dummy_word_7231": 7231, "dummy_word_7232": 7232, "dummy_word_7233": 7233, "dummy_word_7234": 7234, "dummy_word_7235": 7235, "dummy_word_7236": 7236, "dummy_word_7237": 7237, "dummy_word_7238": 7238, "dummy_word_7239": 7239, "dummy_word_7240": 7240, "dummy_word_7241": 7241, "dummy_word_7242": 7242, "dummy_word_7243": 7243, "dummy_word_7244": 7244, "dummy_word_7245": 7245, "dummy_word_7246": 7246, "dummy_word_7247": 7247, "dummy_word_7248": 7248, "dummy_word_7249": 7249, "dummy_word_7250": 7250, "dummy_word_7251": 7251, "dummy_word_7252": 7252, "dummy_word_7253": 7253, "dummy_word_7254": 7254, "dummy_word_7255": 7255, "dummy_word_7256": 7256, "dummy_word_7257": 7257, "dummy_word_7258": 7258, "dummy_word_7259": 7259, "dummy_word_7260": 7260, "dummy_word_7261": 7261, "dummy_word_7262": 7262, "dummy_word_7263": 7263, "dummy_word_7264": 7264, "dummy_word_7265": 7265, "dummy_word_7266": 7266, "dummy_word_7267": 7267, "dummy_word_7268": 7268, "dummy_word_7269": 7269, "dummy_word_7270": 7270, "dummy_word_7271": 7271, "dummy_word_7272": 7272, "dummy_word_7273": 7273, "dummy_word_7274": 7274, "dummy_word_7275": 7275, "dummy_word_7276": 7276, "dummy_word_7277": 7277, "dummy_word_7278": 7278, "dummy_word_7279": 7279, "dummy_word_7280": 7280, "dummy_word_7281": 7281, "dummy_word_7282": 7282, "dummy_word_7283": 7283, "dummy_word_7284": 7284, "dummy_word_7285": 7285, "dummy_word_7286": 7286, "dummy_word_7287": 7287, "dummy_word_7288": 7288, "dummy_word_7289": 7289, "dummy_word_7290": 7290, "dummy_word_7291": 7291, "dummy_word_7292": 7292, "dummy_word_7293": 7293, "dummy_word_7294": 7294, "dummy_word_7295": 7295, "dummy_word_7296": 7296, "dummy_word_7297": 7297, "dummy_word_7298": 7298, "dummy_word_7299": 7299, "dummy_word_7300": 7300, "dummy_word_7301": 7301, "dummy_word_7302": 7302, "dummy_word_7303": 7303, "dummy_word_7304": 7304, "dummy_word_7305": 7305, "dummy_word_7306": 7306, "dummy_word_7307": 7307, "dummy_word_7308": 7308, "dummy_word_7309": 7309, "dummy_word_7310": 7310, "dummy_word_7311": 7311, "dummy_word_7312": 7312, "dummy_word_7313": 7313, "dummy_word_7314": 7314, "dummy_word_7315": 7315, "dummy_word_7316": 7316, "dummy_word_7317": 7317, "dummy_word_7318": 7318, "dummy_word_7319": 7319, "dummy_word_7320": 7320, "dummy_word_7321": 7321, "dummy_word_7322": 7322, "dummy_word_7323": 7323, "dummy_word_7324": 7324, "dummy_word_7325": 7325, "dummy_word_7326": 7326, "dummy_word_7327": 7327, "dummy_word_7328": 7328, "dummy_word_7329": 7329, "dummy_word_7330": 7330, "dummy_word_7331": 7331, "dummy_word_7332": 7332, "dummy_word_7333": 7333, "dummy_word_7334": 7334, "dummy_word_7335": 7335, "dummy_word_7336": 7336, "dummy_word_7337": 7337, "dummy_word_7338": 7338, "dummy_word_7339": 7339, "dummy_word_7340": 7340, "dummy_word_7341": 7341, "dummy_word_7342": 7342, "dummy_word_7343": 7343, "dummy_word_7344": 7344, "dummy_word_7345": 7345, "dummy_word_7346": 7346, "dummy_word_7347": 7347, "dummy_word_7348": 7348, "dummy_word_7349": 7349, "dummy_word_7350": 7350, "dummy_word_7351": 7351, "dummy_word_7352": 7352, "dummy_word_7353": 7353, "dummy_word_7354": 7354, "dummy_word_7355": 7355, "dummy_word_7356": 7356, "dummy_word_7357": 7357, "dummy_word_7358": 7358, "dummy_word_7359": 7359, "dummy_word_7360": 7360, "dummy_word_7361": 7361, "dummy_word_7362": 7362, "dummy_word_7363": 7363, "dummy_word_7364": 7364, "dummy_word_7365": 7365, "dummy_word_7366": 7366, "dummy_word_7367": 7367, "dummy_word_7368": 7368, "dummy_word_7369": 7369, "dummy_word_7370": 7370, "dummy_word_7371": 7371, "dummy_word_7372": 7372, "dummy_word_7373": 7373, "dummy_word_7374": 7374, "dummy_word_7375": 7375, "dummy_word_7376": 7376, "dummy_word_7377": 7377, "dummy_word_7378": 7378, "dummy_word_7379": 7379, "dummy_word_7380": 7380, "dummy_word_7381": 7381, "dummy_word_7382": 7382, "dummy_word_7383": 7383, "dummy_word_7384": 7384, "dummy_word_7385": 7385, "dummy_word_7386": 7386, "dummy_word_7387": 7387, "dummy_word_7388": 7388, "dummy_word_7389": 7389, "dummy_word_7390": 7390, "dummy_word_7391": 7391, "dummy_word_7392": 7392, "dummy_word_7393": 7393, "dummy_word_7394": 7394, "dummy_word_7395": 7395, "dummy_word_7396": 7396, "dummy_word_7397": 7397, "dummy_word_7398": 7398, "dummy_word_7399": 7399, "dummy_word_7400": 7400, "dummy_word_7401": 7401, "dummy_word_7402": 7402, "dummy_word_7403": 7403, "dummy_word_7404": 7404, "dummy_word_7405": 7405, "dummy_word_7406": 7406, "dummy_word_7407": 7407, "dummy_word_7408": 7408, "dummy_word_7409": 7409, "dummy_word_7410": 7410, "dummy_word_7411": 7411, "dummy_word_7412": 7412, "dummy_word_7413": 7413, "dummy_word_7414": 7414, "dummy_word_7415": 7415, "dummy_word_7416": 7416, "dummy_word_7417": 7417, "dummy_word_7418": 7418, "dummy_word_7419": 7419, "dummy_word_7420": 7420, "dummy_word_7421": 7421, "dummy_word_7422": 7422, "dummy_word_7423": 7423, "dummy_word_7424": 7424, "dummy_word_7425": 7425, "dummy_word_7426": 7426, "dummy_word_7427": 7427, "dummy_word_7428": 7428, "dummy_word_7429": 7429, "dummy_word_7430": 7430, "dummy_word_7431": 7431, "dummy_word_7432": 7432, "dummy_word_7433": 7433, "dummy_word_7434": 7434, "dummy_word_7435": 7435, "dummy_word_7436": 7436, "dummy_word_7437": 7437, "dummy_word_7438": 7438, "dummy_word_7439": 7439, "dummy_word_7440": 7440, "dummy_word_7441": 7441, "dummy_word_7442": 7442, "dummy_word_7443": 7443, "dummy_word_7444": 7444, "dummy_word_7445": 7445, "dummy_word_7446": 7446, "dummy_word_7447": 7447, "dummy_word_7448": 7448, "dummy_word_7449": 7449, "dummy_word_7450": 7450, "dummy_word_7451": 7451, "dummy_word_7452": 7452, "dummy_word_7453": 7453, "dummy_word_7454": 7454, "dummy_word_7455": 7455, "dummy_word_7456": 7456, "dummy_word_7457": 7457, "dummy_word_7458": 7458, "dummy_word_7459": 7459, "dummy_word_7460": 7460, "dummy_word_7461": 7461, "dummy_word_7462": 7462, "dummy_word_7463": 7463, "dummy_word_7464": 7464, "dummy_word_7465": 7465, "dummy_word_7466": 7466, "dummy_word_7467": 7467, "dummy_word_7468": 7468, "dummy_word_7469": 7469, "dummy_word_7470": 7470, "dummy_word_7471": 7471, "dummy_word_7472": 7472, "dummy_word_7473": 7473, "dummy_word_7474": 7474, "dummy_word_7475": 7475, "dummy_word_7476": 7476, "dummy_word_7477": 7477, "dummy_word_7478": 7478, "dummy_word_7479": 7479, "dummy_word_7480": 7480, "dummy_word_7481": 7481, "dummy_word_7482": 7482, "dummy_word_7483": 7483, "dummy_word_7484": 7484, "dummy_word_7485": 7485, "dummy_word_7486": 7486, "dummy_word_7487": 7487, "dummy_word_7488": 7488, "dummy_word_7489": 7489, "dummy_word_7490": 7490, "dummy_word_7491": 7491, "dummy_word_7492": 7492, "dummy_word_7493": 7493, "dummy_word_7494": 7494, "dummy_word_7495": 7495, "dummy_word_7496": 7496, "dummy_word_7497": 7497, "dummy_word_7498": 7498, "dummy_word_7499": 7499, "dummy_word_7500": 7500, "dummy_word_7501": 7501, "dummy_word_7502": 7502, "dummy_word_7503": 7503, "dummy_word_7504": 7504, "dummy_word_7505": 7505, "dummy_word_7506": 7506, "dummy_word_7507": 7507, "dummy_word_7508": 7508, "dummy_word_7509": 7509, "dummy_word_7510": 7510, "dummy_word_7511": 7511, "dummy_word_7512": 7512, "dummy_word_7513": 7513, "dummy_word_7514": 7514, "dummy_word_7515": 7515, "dummy_word_7516": 7516, "dummy_word_7517": 7517, "dummy_word_7518": 7518, "dummy_word_7519": 7519, "dummy_word_7520": 7520, "dummy_word_7521": 7521, "dummy_word_7522": 7522, "dummy_word_7523": 7523, "dummy_word_7524": 7524, "dummy_word_7525": 7525, "dummy_word_7526": 7526, "dummy_word_7527": 7527, "dummy_word_7528": 7528, "dummy_word_7529": 7529, "dummy_word_7530": 7530, "dummy_word_7531": 7531, "dummy_word_7532": 7532, "dummy_word_7533": 7533, "dummy_word_7534": 7534, "dummy_word_7535": 7535, "dummy_word_7536": 7536, "dummy_word_7537": 7537, "dummy_word_7538": 7538, "dummy_word_7539": 7539, "dummy_word_7540": 7540, "dummy_word_7541": 7541, "dummy_word_7542": 7542, "dummy_word_7543": 7543, "dummy_word_7544": 7544, "dummy_word_7545": 7545, "dummy_word_7546": 7546, "dummy_word_7547": 7547, "dummy_word_7548": 7548, "dummy_word_7549": 7549, "dummy_word_7550": 7550, "dummy_word_7551": 7551, "dummy_word_7552": 7552, "dummy_word_7553": 7553, "dummy_word_7554": 7554, "dummy_word_7555": 7555, "dummy_word_7556": 7556, "dummy_word_7557": 7557, "dummy_word_7558": 7558, "dummy_word_7559": 7559, "dummy_word_7560": 7560, "dummy_word_7561": 7561, "dummy_word_7562": 7562, "dummy_word_7563": 7563, "dummy_word_7564": 7564, "dummy_word_7565": 7565, "dummy_word_7566": 7566, "dummy_word_7567": 7567, "dummy_word_7568": 7568, "dummy_word_7569": 7569, "dummy_word_7570": 7570, "dummy_word_7571": 7571, "dummy_word_7572": 7572, "dummy_word_7573": 7573, "dummy_word_7574": 7574, "dummy_word_7575": 7575, "dummy_word_7576": 7576, "dummy_word_7577": 7577, "dummy_word_7578": 7578, "dummy_word_7579": 7579, "dummy_word_7580": 7580, "dummy_word_7581": 7581, "dummy_word_7582": 7582, "dummy_word_7583": 7583, "dummy_word_7584": 7584, "dummy_word_7585": 7585, "dummy_word_7586": 7586, "dummy_word_7587": 7587, "dummy_word_7588": 7588, "dummy_word_7589": 7589, "dummy_word_7590": 7590, "dummy_word_7591": 7591, "dummy_word_7592": 7592, "dummy_word_7593": 7593, "dummy_word_7594": 7594, "dummy_word_7595": 7595, "dummy_word_7596": 7596, "dummy_word_7597": 7597, "dummy_word_7598": 7598, "dummy_word_7599": 7599, "dummy_word_7600": 7600, "dummy_word_7601": 7601, "dummy_word_7602": 7602, "dummy_word_7603": 7603, "dummy_word_7604": 7604, "dummy_word_7605": 7605, "dummy_word_7606": 7606, "dummy_word_7607": 7607, "dummy_word_7608": 7608, "dummy_word_7609": 7609, "dummy_word_7610": 7610, "dummy_word_7611": 7611, "dummy_word_7612": 7612, "dummy_word_7613": 7613, "dummy_word_7614": 7614, "dummy_word_7615": 7615, "dummy_word_7616": 7616, "dummy_word_7617": 7617, "dummy_word_7618": 7618, "dummy_word_7619": 7619, "dummy_word_7620": 7620, "dummy_word_7621": 7621, "dummy_word_7622": 7622, "dummy_word_7623": 7623, "dummy_word_7624": 7624, "dummy_word_7625": 7625, "dummy_word_7626": 7626, "dummy_word_7627": 7627, "dummy_word_7628": 7628, "dummy_word_7629": 7629, "dummy_word_7630": 7630, "dummy_word_7631": 7631, "dummy_word_7632": 7632, "dummy_word_7633": 7633, "dummy_word_7634": 7634, "dummy_word_7635": 7635, "dummy_word_7636": 7636, "dummy_word_7637": 7637, "dummy_word_7638": 7638, "dummy_word_7639": 7639, "dummy_word_7640": 7640, "dummy_word_7641": 7641, "dummy_word_7642": 7642, "dummy_word_7643": 7643, "dummy_word_7644": 7644, "dummy_word_7645": 7645, "dummy_word_7646": 7646, "dummy_word_7647": 7647, "dummy_word_7648": 7648, "dummy_word_7649": 7649, "dummy_word_7650": 7650, "dummy_word_7651": 7651, "dummy_word_7652": 7652, "dummy_word_7653": 7653, "dummy_word_7654": 7654, "dummy_word_7655": 7655, "dummy_word_7656": 7656, "dummy_word_7657": 7657, "dummy_word_7658": 7658, "dummy_word_7659": 7659, "dummy_word_7660": 7660, "dummy_word_7661": 7661, "dummy_word_7662": 7662, "dummy_word_7663": 7663, "dummy_word_7664": 7664, "dummy_word_7665": 7665, "dummy_word_7666": 7666, "dummy_word_7667": 7667, "dummy_word_7668": 7668, "dummy_word_7669": 7669, "dummy_word_7670": 7670, "dummy_word_7671": 7671, "dummy_word_7672": 7672, "dummy_word_7673": 7673, "dummy_word_7674": 7674, "dummy_word_7675": 7675, "dummy_word_7676": 7676, "dummy_word_7677": 7677, "dummy_word_7678": 7678, "dummy_word_7679": 7679, "dummy_word_7680": 7680, "dummy_word_7681": 7681, "dummy_word_7682": 7682, "dummy_word_7683": 7683, "dummy_word_7684": 7684, "dummy_word_7685": 7685, "dummy_word_7686": 7686, "dummy_word_7687": 7687, "dummy_word_7688": 7688, "dummy_word_7689": 7689, "dummy_word_7690": 7690, "dummy_word_7691": 7691, "dummy_word_7692": 7692, "dummy_word_7693": 7693, "dummy_word_7694": 7694, "dummy_word_7695": 7695, "dummy_word_7696": 7696, "dummy_word_7697": 7697, "dummy_word_7698": 7698, "dummy_word_7699": 7699, "dummy_word_7700": 7700, "dummy_word_7701": 7701, "dummy_word_7702": 7702, "dummy_word_7703": 7703, "dummy_word_7704": 7704, "dummy_word_7705": 7705, "dummy_word_7706": 7706, "dummy_word_7707": 7707, "dummy_word_7708": 7708, "dummy_word_7709": 7709, "dummy_word_7710": 7710, "dummy_word_7711": 7711, "dummy_word_7712": 7712, "dummy_word_7713": 7713, "dummy_word_7714": 7714, "dummy_word_7715": 7715, "dummy_word_7716": 7716, "dummy_word_7717": 7717, "dummy_word_7718": 7718, "dummy_word_7719": 7719, "dummy_word_7720": 7720, "dummy_word_7721": 7721, "dummy_word_7722": 7722, "dummy_word_7723": 7723, "dummy_word_7724": 7724, "dummy_word_7725": 7725, "dummy_word_7726": 7726, "dummy_word_7727": 7727, "dummy_word_7728": 7728, "dummy_word_7729": 7729, "dummy_word_7730": 7730, "dummy_word_7731": 7731, "dummy_word_7732": 7732, "dummy_word_7733": 7733, "dummy_word_7734": 7734, "dummy_word_7735": 7735, "dummy_word_7736": 7736, "dummy_word_7737": 7737, "dummy_word_7738": 7738, "dummy_word_7739": 7739, "dummy_word_7740": 7740, "dummy_word_7741": 7741, "dummy_word_7742": 7742, "dummy_word_7743": 7743, "dummy_word_7744": 7744, "dummy_word_7745": 7745, "dummy_word_7746": 7746, "dummy_word_7747": 7747, "dummy_word_7748": 7748, "dummy_word_7749": 7749, "dummy_word_7750": 7750, "dummy_word_7751": 7751, "dummy_word_7752": 7752, "dummy_word_7753": 7753, "dummy_word_7754": 7754, "dummy_word_7755": 7755, "dummy_word_7756": 7756, "dummy_word_7757": 7757, "dummy_word_7758": 7758, "dummy_word_7759": 7759, "dummy_word_7760": 7760, "dummy_word_7761": 7761, "dummy_word_7762": 7762, "dummy_word_7763": 7763, "dummy_word_7764": 7764, "dummy_word_7765": 7765, "dummy_word_7766": 7766, "dummy_word_7767": 7767, "dummy_word_7768": 7768, "dummy_word_7769": 7769, "dummy_word_7770": 7770, "dummy_word_7771": 7771, "dummy_word_7772": 7772, "dummy_word_7773": 7773, "dummy_word_7774": 7774, "dummy_word_7775": 7775, "dummy_word_7776": 7776, "dummy_word_7777": 7777, "dummy_word_7778": 7778, "dummy_word_7779": 7779, "dummy_word_7780": 7780, "dummy_word_7781": 7781, "dummy_word_7782": 7782, "dummy_word_7783": 7783, "dummy_word_7784": 7784, "dummy_word_7785": 7785, "dummy_word_7786": 7786, "dummy_word_7787": 7787, "dummy_word_7788": 7788, "dummy_word_7789": 7789, "dummy_word_7790": 7790, "dummy_word_7791": 7791, "dummy_word_7792": 7792, "dummy_word_7793": 7793, "dummy_word_7794": 7794, "dummy_word_7795": 7795, "dummy_word_7796": 7796, "dummy_word_7797": 7797, "dummy_word_7798": 7798, "dummy_word_7799": 7799, "dummy_word_7800": 7800, "dummy_word_7801": 7801, "dummy_word_7802": 7802, "dummy_word_7803": 7803, "dummy_word_7804": 7804, "dummy_word_7805": 7805, "dummy_word_7806": 7806, "dummy_word_7807": 7807, "dummy_word_7808": 7808, "dummy_word_7809": 7809, "dummy_word_7810": 7810, "dummy_word_7811": 7811, "dummy_word_7812": 7812, "dummy_word_7813": 7813, "dummy_word_7814": 7814, "dummy_word_7815": 7815, "dummy_word_7816": 7816, "dummy_word_7817": 7817, "dummy_word_7818": 7818, "dummy_word_7819": 7819, "dummy_word_7820": 7820, "dummy_word_7821": 7821, "dummy_word_7822": 7822, "dummy_word_7823": 7823, "dummy_word_7824": 7824, "dummy_word_7825": 7825, "dummy_word_7826": 7826, "dummy_word_7827": 7827, "dummy_word_7828": 7828, "dummy_word_7829": 7829, "dummy_word_7830": 7830, "dummy_word_7831": 7831, "dummy_word_7832": 7832, "dummy_word_7833": 7833, "dummy_word_7834": 7834, "dummy_word_7835": 7835, "dummy_word_7836": 7836, "dummy_word_7837": 7837, "dummy_word_7838": 7838, "dummy_word_7839": 7839, "dummy_word_7840": 7840, "dummy_word_7841": 7841, "dummy_word_7842": 7842, "dummy_word_7843": 7843, "dummy_word_7844": 7844, "dummy_word_7845": 7845, "dummy_word_7846": 7846, "dummy_word_7847": 7847, "dummy_word_7848": 7848, "dummy_word_7849": 7849, "dummy_word_7850": 7850, "dummy_word_7851": 7851, "dummy_word_7852": 7852, "dummy_word_7853": 7853, "dummy_word_7854": 7854, "dummy_word_7855": 7855, "dummy_word_7856": 7856, "dummy_word_7857": 7857, "dummy_word_7858": 7858, "dummy_word_7859": 7859, "dummy_word_7860": 7860, "dummy_word_7861": 7861, "dummy_word_7862": 7862, "dummy_word_7863": 7863, "dummy_word_7864": 7864, "dummy_word_7865": 7865, "dummy_word_7866": 7866, "dummy_word_7867": 7867, "dummy_word_7868": 7868, "dummy_word_7869": 7869, "dummy_word_7870": 7870, "dummy_word_7871": 7871, "dummy_word_7872": 7872, "dummy_word_7873": 7873, "dummy_word_7874": 7874, "dummy_word_7875": 7875, "dummy_word_7876": 7876, "dummy_word_7877": 7877, "dummy_word_7878": 7878, "dummy_word_7879": 7879, "dummy_word_7880": 7880, "dummy_word_7881": 7881, "dummy_word_7882": 7882, "dummy_word_7883": 7883, "dummy_word_7884": 7884, "dummy_word_7885": 7885, "dummy_word_7886": 7886, "dummy_word_7887": 7887, "dummy_word_7888": 7888, "dummy_word_7889": 7889, "dummy_word_7890": 7890, "dummy_word_7891": 7891, "dummy_word_7892": 7892, "dummy_word_7893": 7893, "dummy_word_7894": 7894, "dummy_word_7895": 7895, "dummy_word_7896": 7896, "dummy_word_7897": 7897, "dummy_word_7898": 7898, "dummy_word_7899": 7899, "dummy_word_7900": 7900, "dummy_word_7901": 7901, "dummy_word_7902": 7902, "dummy_word_7903": 7903, "dummy_word_7904": 7904, "dummy_word_7905": 7905, "dummy_word_7906": 7906, "dummy_word_7907": 7907, "dummy_word_7908": 7908, "dummy_word_7909": 7909, "dummy_word_7910": 7910, "dummy_word_7911": 7911, "dummy_word_7912": 7912, "dummy_word_7913": 7913, "dummy_word_7914": 7914, "dummy_word_7915": 7915, "dummy_word_7916": 7916, "dummy_word_7917": 7917, "dummy_word_7918": 7918, "dummy_word_7919": 7919, "dummy_word_7920": 7920, "dummy_word_7921": 7921, "dummy_word_7922": 7922, "dummy_word_7923": 7923, "dummy_word_7924": 7924, "dummy_word_7925": 7925, "dummy_word_7926": 7926, "dummy_word_7927": 7927, "dummy_word_7928": 7928, "dummy_word_7929": 7929, "dummy_word_7930": 7930, "dummy_word_7931": 7931, "dummy_word_7932": 7932, "dummy_word_7933": 7933, "dummy_word_7934": 7934, "dummy_word_7935": 7935, "dummy_word_7936": 7936, "dummy_word_7937": 7937, "dummy_word_7938": 7938, "dummy_word_7939": 7939, "dummy_word_7940": 7940, "dummy_word_7941": 7941, "dummy_word_7942": 7942, "dummy_word_7943": 7943, "dummy_word_7944": 7944, "dummy_word_7945": 7945, "dummy_word_7946": 7946, "dummy_word_7947": 7947, "dummy_word_7948": 7948, "dummy_word_7949": 7949, "dummy_word_7950": 7950, "dummy_word_7951": 7951, "dummy_word_7952": 7952, "dummy_word_7953": 7953, "dummy_word_7954": 7954, "dummy_word_7955": 7955, "dummy_word_7956": 7956, "dummy_word_7957": 7957, "dummy_word_7958": 7958, "dummy_word_7959": 7959, "dummy_word_7960": 7960, "dummy_word_7961": 7961, "dummy_word_7962": 7962, "dummy_word_7963": 7963, "dummy_word_7964": 7964, "dummy_word_7965": 7965, "dummy_word_7966": 7966, "dummy_word_7967": 7967, "dummy_word_7968": 7968, "dummy_word_7969": 7969, "dummy_word_7970": 7970, "dummy_word_7971": 7971, "dummy_word_7972": 7972, "dummy_word_7973": 7973, "dummy_word_7974": 7974, "dummy_word_7975": 7975, "dummy_word_7976": 7976, "dummy_word_7977": 7977, "dummy_word_7978": 7978, "dummy_word_7979": 7979, "dummy_word_7980": 7980, "dummy_word_7981": 7981, "dummy_word_7982": 7982, "dummy_word_7983": 7983, "dummy_word_7984": 7984, "dummy_word_7985": 7985, "dummy_word_7986": 7986, "dummy_word_7987": 7987, "dummy_word_7988": 7988, "dummy_word_7989": 7989, "dummy_word_7990": 7990, "dummy_word_7991": 7991, "dummy_word_7992": 7992, "dummy_word_7993": 7993, "dummy_word_7994": 7994, "dummy_word_7995": 7995, "dummy_word_7996": 7996, "dummy_word_7997": 7997, "dummy_word_7998": 7998, "dummy_word_7999": 7999, "dummy_word_8000": 8000, "dummy_word_8001": 8001, "dummy_word_8002": 8002, "dummy_word_8003": 8003, "dummy_word_8004": 8004, "dummy_word_8005": 8005, "dummy_word_8006": 8006, "dummy_word_8007": 8007, "dummy_word_8008": 8008, "dummy_word_8009": 8009, "dummy_word_8010": 8010, "dummy_word_8011": 8011, "dummy_word_8012": 8012, "dummy_word_8013": 8013, "dummy_word_8014": 8014, "dummy_word_8015": 8015, "dummy_word_8016": 8016, "dummy_word_8017": 8017, "dummy_word_8018": 8018, "dummy_word_8019": 8019, "dummy_word_8020": 8020, "dummy_word_8021": 8021, "dummy_word_8022": 8022, "dummy_word_8023": 8023, "dummy_word_8024": 8024, "dummy_word_8025": 8025, "dummy_word_8026": 8026, "dummy_word_8027": 8027, "dummy_word_8028": 8028, "dummy_word_8029": 8029, "dummy_word_8030": 8030, "dummy_word_8031": 8031, "dummy_word_8032": 8032, "dummy_word_8033": 8033, "dummy_word_8034": 8034, "dummy_word_8035": 8035, "dummy_word_8036": 8036, "dummy_word_8037": 8037, "dummy_word_8038": 8038, "dummy_word_8039": 8039, "dummy_word_8040": 8040, "dummy_word_8041": 8041, "dummy_word_8042": 8042, "dummy_word_8043": 8043, "dummy_word_8044": 8044, "dummy_word_8045": 8045, "dummy_word_8046": 8046, "dummy_word_8047": 8047, "dummy_word_8048": 8048, "dummy_word_8049": 8049, "dummy_word_8050": 8050, "dummy_word_8051": 8051, "dummy_word_8052": 8052, "dummy_word_8053": 8053, "dummy_word_8054": 8054, "dummy_word_8055": 8055, "dummy_word_8056": 8056, "dummy_word_8057": 8057, "dummy_word_8058": 8058, "dummy_word_8059": 8059, "dummy_word_8060": 8060, "dummy_word_8061": 8061, "dummy_word_8062": 8062, "dummy_word_8063": 8063, "dummy_word_8064": 8064, "dummy_word_8065": 8065, "dummy_word_8066": 8066, "dummy_word_8067": 8067, "dummy_word_8068": 8068, "dummy_word_8069": 8069, "dummy_word_8070": 8070, "dummy_word_8071": 8071, "dummy_word_8072": 8072, "dummy_word_8073": 8073, "dummy_word_8074": 8074, "dummy_word_8075": 8075, "dummy_word_8076": 8076, "dummy_word_8077": 8077, "dummy_word_8078": 8078, "dummy_word_8079": 8079, "dummy_word_8080": 8080, "dummy_word_8081": 8081, "dummy_word_8082": 8082, "dummy_word_8083": 8083, "dummy_word_8084": 8084, "dummy_word_8085": 8085, "dummy_word_8086": 8086, "dummy_word_8087": 8087, "dummy_word_8088": 8088, "dummy_word_8089": 8089, "dummy_word_8090": 8090, "dummy_word_8091": 8091, "dummy_word_8092": 8092, "dummy_word_8093": 8093,
[...]
